070cfcfd080f0806
070cfcfd080f0806
070cfcfd080f0806
070cfcfd080f0806
070cfcfd080f0806
070cfcfd080f0806
070cfcfd080f0806
070cfcfd080f0806
06050906020b0008
06050906020b0008
06050906020b0008
06050906020b0008
06050906020b0008
06050906020b0008
06050906020b0008
06050906020b0008
0a05080109030a05
0a05080109030a05
0a05080109030a05
0a05080109030a05
0a05080109030a05
0a05080109030a05
0a05080109030a05
0a05080109030a05
10ddfdfc12ec17e8
10ddfdfc12ec17e8
10ddfdfc12ec17e8
10ddfdfc12ec17e8
10ddfdfc12ec17e8
10ddfdfc12ec17e8
10ddfdfc12ec17e8
10ddfdfc12ec17e8
eeec1debf6e7f811
eeec1debf6e7f811
eeec1debf6e7f811
eeec1debf6e7f811
eeec1debf6e7f811
eeec1debf6e7f811
eeec1debf6e7f811
eeec1debf6e7f811
e6061af7fbf317e9
e6061af7fbf317e9
e6061af7fbf317e9
e6061af7fbf317e9
e6061af7fbf317e9
e6061af7fbf317e9
e6061af7fbf317e9
e6061af7fbf317e9
030f0a000b0b0ffe
030f0a000b0b0ffe
030f0a000b0b0ffe
030f0a000b0b0ffe
030f0a000b0b0ffe
030f0a000b0b0ffe
030f0a000b0b0ffe
030f0a000b0b0ffe
0df6f40802fa0419
0df6f40802fa0419
0df6f40802fa0419
0df6f40802fa0419
0df6f40802fa0419
0df6f40802fa0419
0df6f40802fa0419
0df6f40802fa0419
f703fe04fffdfe0c
f703fe04fffdfe0c
f703fe04fffdfe0c
f703fe04fffdfe0c
f703fe04fffdfe0c
f703fe04fffdfe0c
f703fe04fffdfe0c
f703fe04fffdfe0c
01090df60b0cfa00
01090df60b0cfa00
01090df60b0cfa00
01090df60b0cfa00
01090df60b0cfa00
01090df60b0cfa00
01090df60b0cfa00
01090df60b0cfa00
fafe0b08f6f90bfb
fafe0b08f6f90bfb
fafe0b08f6f90bfb
fafe0b08f6f90bfb
fafe0b08f6f90bfb
fafe0b08f6f90bfb
fafe0b08f6f90bfb
fafe0b08f6f90bfb
fd09f611090b0d0d
fd09f611090b0d0d
fd09f611090b0d0d
fd09f611090b0d0d
fd09f611090b0d0d
fd09f611090b0d0d
fd09f611090b0d0d
fd09f611090b0d0d
fd00000c0600f70c
fd00000c0600f70c
fd00000c0600f70c
fd00000c0600f70c
fd00000c0600f70c
fd00000c0600f70c
fd00000c0600f70c
fd00000c0600f70c
f9050efffcf60c12
f9050efffcf60c12
f9050efffcf60c12
f9050efffcf60c12
f9050efffcf60c12
f9050efffcf60c12
f9050efffcf60c12
f9050efffcf60c12
0804010103020a04
0804010103020a04
0804010103020a04
0804010103020a04
0804010103020a04
0804010103020a04
0804010103020a04
0804010103020a04
040605060200fe04
040605060200fe04
040605060200fe04
040605060200fe04
040605060200fe04
040605060200fe04
040605060200fe04
040605060200fe04
0705000800fbfc01
0705000800fbfc01
0705000800fbfc01
0705000800fbfc01
0705000800fbfc01
0705000800fbfc01
0705000800fbfc01
0705000800fbfc01
00020208ff010002
00020208ff010002
00020208ff010002
00020208ff010002
00020208ff010002
00020208ff010002
00020208ff010002
00020208ff010002
02f9010102030505
02f9010102030505
02f9010102030505
02f9010102030505
02f9010102030505
02f9010102030505
02f9010102030505
02f9010102030505
03fafd0505000007
03fafd0505000007
03fafd0505000007
03fafd0505000007
03fafd0505000007
03fafd0505000007
03fafd0505000007
03fafd0505000007
0304fe05030401fc
0304fe05030401fc
0304fe05030401fc
0304fe05030401fc
0304fe05030401fc
0304fe05030401fc
0304fe05030401fc
0304fe05030401fc
fd03fbff04000101
fd03fbff04000101
fd03fbff04000101
fd03fbff04000101
fd03fbff04000101
fd03fbff04000101
fd03fbff04000101
fd03fbff04000101
2b00f7fff5fa0105
2b00f7fff5fa0105
2b00f7fff5fa0105
2b00f7fff5fa0105
2b00f7fff5fa0105
2b00f7fff5fa0105
2b00f7fff5fa0105
2b00f7fff5fa0105
fe5902e8d502261a
fe5902e8d502261a
fe5902e8d502261a
fe5902e8d502261a
fe5902e8d502261a
fe5902e8d502261a
fe5902e8d502261a
fe5902e8d502261a
09e6052cfbe5f9fc
09e6052cfbe5f9fc
09e6052cfbe5f9fc
09e6052cfbe5f9fc
09e6052cfbe5f9fc
09e6052cfbe5f9fc
09e6052cfbe5f9fc
09e6052cfbe5f9fc
f6e909f92e2929f9
f6e909f92e2929f9
f6e909f92e2929f9
f6e909f92e2929f9
f6e909f92e2929f9
f6e909f92e2929f9
f6e909f92e2929f9
f6e909f92e2929f9
0520ee2d271418ff
0520ee2d271418ff
0520ee2d271418ff
0520ee2d271418ff
0520ee2d271418ff
0520ee2d271418ff
0520ee2d271418ff
0520ee2d271418ff
0b06f6f731fe01fb
0b06f6f731fe01fb
0b06f6f731fe01fb
0b06f6f731fe01fb
0b06f6f731fe01fb
0b06f6f731fe01fb
0b06f6f731fe01fb
0b06f6f731fe01fb
fafabe2e01060203
fafabe2e01060203
fafabe2e01060203
fafabe2e01060203
fafabe2e01060203
fafabe2e01060203
fafabe2e01060203
fafabe2e01060203
0f000e2c01023e01
0f000e2c01023e01
0f000e2c01023e01
0f000e2c01023e01
0f000e2c01023e01
0f000e2c01023e01
0f000e2c01023e01
0f000e2c01023e01
fc020d080c090800
fc020d080c090800
fc020d080c090800
fc020d080c090800
fc020d080c090800
fc020d080c090800
fc020d080c090800
fc020d080c090800
080a0007000d0012
080a0007000d0012
080a0007000d0012
080a0007000d0012
080a0007000d0012
080a0007000d0012
080a0007000d0012
080a0007000d0012
fbfd02090cfa0409
fbfd02090cfa0409
fbfd02090cfa0409
fbfd02090cfa0409
fbfd02090cfa0409
fbfd02090cfa0409
fbfd02090cfa0409
fbfd02090cfa0409
0b04080c010604ff
0b04080c010604ff
0b04080c010604ff
0b04080c010604ff
0b04080c010604ff
0b04080c010604ff
0b04080c010604ff
0b04080c010604ff
020a0101fffa0301
020a0101fffa0301
020a0101fffa0301
020a0101fffa0301
020a0101fffa0301
020a0101fffa0301
020a0101fffa0301
020a0101fffa0301
00f8fefdfe010003
00f8fefdfe010003
00f8fefdfe010003
00f8fefdfe010003
00f8fefdfe010003
00f8fefdfe010003
00f8fefdfe010003
00f8fefdfe010003
0002fd0504fc0302
0002fd0504fc0302
0002fd0504fc0302
0002fd0504fc0302
0002fd0504fc0302
0002fd0504fc0302
0002fd0504fc0302
0002fd0504fc0302
0407020203030007
0407020203030007
0407020203030007
0407020203030007
0407020203030007
0407020203030007
0407020203030007
0407020203030007
f808fd03060bfe04
f808fd03060bfe04
f808fd03060bfe04
f808fd03060bfe04
f808fd03060bfe04
f808fd03060bfe04
f808fd03060bfe04
f808fd03060bfe04
0505ff000909fef9
0505ff000909fef9
0505ff000909fef9
0505ff000909fef9
0505ff000909fef9
0505ff000909fef9
0505ff000909fef9
0505ff000909fef9
fa0afa01070406fa
fa0afa01070406fa
fa0afa01070406fa
fa0afa01070406fa
fa0afa01070406fa
fa0afa01070406fa
fa0afa01070406fa
fa0afa01070406fa
f90502fcfa0801f8
f90502fcfa0801f8
f90502fcfa0801f8
f90502fcfa0801f8
f90502fcfa0801f8
f90502fcfa0801f8
f90502fcfa0801f8
f90502fcfa0801f8
020d0101fd000205
020d0101fd000205
020d0101fd000205
020d0101fd000205
020d0101fd000205
020d0101fd000205
020d0101fd000205
020d0101fd000205
06fa0102faf9ff09
06fa0102faf9ff09
06fa0102faf9ff09
06fa0102faf9ff09
06fa0102faf9ff09
06fa0102faf9ff09
06fa0102faf9ff09
06fa0102faf9ff09
0607ff03ff0509fb
0607ff03ff0509fb
0607ff03ff0509fb
0607ff03ff0509fb
0607ff03ff0509fb
0607ff03ff0509fb
0607ff03ff0509fb
0607ff03ff0509fb
06f109f3fd00f900
06f109f3fd00f900
06f109f3fd00f900
06f109f3fd00f900
06f109f3fd00f900
06f109f3fd00f900
06f109f3fd00f900
06f109f3fd00f900
fbfd0a0feb0a0206
fbfd0a0feb0a0206
fbfd0a0feb0a0206
fbfd0a0feb0a0206
fbfd0a0feb0a0206
fbfd0a0feb0a0206
fbfd0a0feb0a0206
fbfd0a0feb0a0206
03e60d041005000c
03e60d041005000c
03e60d041005000c
03e60d041005000c
03e60d041005000c
03e60d041005000c
03e60d041005000c
03e60d041005000c
081305f700ebf40a
081305f700ebf40a
081305f700ebf40a
081305f700ebf40a
081305f700ebf40a
081305f700ebf40a
081305f700ebf40a
081305f700ebf40a
0bfc14fd0102f209
0bfc14fd0102f209
0bfc14fd0102f209
0bfc14fd0102f209
0bfc14fd0102f209
0bfc14fd0102f209
0bfc14fd0102f209
0bfc14fd0102f209
0e12f7e2fb0d0bf5
0e12f7e2fb0d0bf5
0e12f7e2fb0d0bf5
0e12f7e2fb0d0bf5
0e12f7e2fb0d0bf5
0e12f7e2fb0d0bf5
0e12f7e2fb0d0bf5
0e12f7e2fb0d0bf5
f3f8e4050b07090b
f3f8e4050b07090b
f3f8e4050b07090b
f3f8e4050b07090b
f3f8e4050b07090b
f3f8e4050b07090b
f3f8e4050b07090b
f3f8e4050b07090b
030f07000afa08f8
030f07000afa08f8
030f07000afa08f8
030f07000afa08f8
030f07000afa08f8
030f07000afa08f8
030f07000afa08f8
030f07000afa08f8
dc0dfe0b0310080e
dc0dfe0b0310080e
dc0dfe0b0310080e
dc0dfe0b0310080e
dc0dfe0b0310080e
dc0dfe0b0310080e
dc0dfe0b0310080e
dc0dfe0b0310080e
0502020300020501
0502020300020501
0502020300020501
0502020300020501
0502020300020501
0502020300020501
0502020300020501
0502020300020501
ffff070304ff0406
ffff070304ff0406
ffff070304ff0406
ffff070304ff0406
ffff070304ff0406
ffff070304ff0406
ffff070304ff0406
ffff070304ff0406
0307020301020403
0307020301020403
0307020301020403
0307020301020403
0307020301020403
0307020301020403
0307020301020403
0307020301020403
0700fd03ff0406ff
0700fd03ff0406ff
0700fd03ff0406ff
0700fd03ff0406ff
0700fd03ff0406ff
0700fd03ff0406ff
0700fd03ff0406ff
0700fd03ff0406ff
0204ff00ff010500
0204ff00ff010500
0204ff00ff010500
0204ff00ff010500
0204ff00ff010500
0204ff00ff010500
0204ff00ff010500
0204ff00ff010500
02fdfefd01fffe04
02fdfefd01fffe04
02fdfefd01fffe04
02fdfefd01fffe04
02fdfefd01fffe04
02fdfefd01fffe04
02fdfefd01fffe04
02fdfefd01fffe04
0200feff02010202
0200feff02010202
0200feff02010202
0200feff02010202
0200feff02010202
0200feff02010202
0200feff02010202
0200feff02010202
0104020205ff0101
0104020205ff0101
0104020205ff0101
0104020205ff0101
0104020205ff0101
0104020205ff0101
0104020205ff0101
0104020205ff0101
05feff00f9fef7f6
05feff00f9fef7f6
05feff00f9fef7f6
05feff00f9fef7f6
05feff00f9fef7f6
05feff00f9fef7f6
05feff00f9fef7f6
05feff00f9fef7f6
0502f6fbfcfaf8fd
0502f6fbfcfaf8fd
0502f6fbfcfaf8fd
0502f6fbfcfaf8fd
0502f6fbfcfaf8fd
0502f6fbfcfaf8fd
0502f6fbfcfaf8fd
0502f6fbfcfaf8fd
03fbf9fc02f406fa
03fbf9fc02f406fa
03fbf9fc02f406fa
03fbf9fc02f406fa
03fbf9fc02f406fa
03fbf9fc02f406fa
03fbf9fc02f406fa
03fbf9fc02f406fa
0d06fafd00fefa01
0d06fafd00fefa01
0d06fafd00fefa01
0d06fafd00fefa01
0d06fafd00fefa01
0d06fafd00fefa01
0d06fafd00fefa01
0d06fafd00fefa01
f805fbfaf9f80007
f805fbfaf9f80007
f805fbfaf9f80007
f805fbfaf9f80007
f805fbfaf9f80007
f805fbfaf9f80007
f805fbfaf9f80007
f805fbfaf9f80007
fbfafffefefbfbfb
fbfafffefefbfbfb
fbfafffefefbfbfb
fbfafffefefbfbfb
fbfafffefefbfbfb
fbfafffefefbfbfb
fbfafffefefbfbfb
fbfafffefefbfbfb
0405030301fcfb01
0405030301fcfb01
0405030301fcfb01
0405030301fcfb01
0405030301fcfb01
0405030301fcfb01
0405030301fcfb01
0405030301fcfb01
0504f700000502fc
0504f700000502fc
0504f700000502fc
0504f700000502fc
0504f700000502fc
0504f700000502fc
0504f700000502fc
0504f700000502fc
0bf306ef080c0a1e
0bf306ef080c0a1e
0bf306ef080c0a1e
0bf306ef080c0a1e
0bf306ef080c0a1e
0bf306ef080c0a1e
0bf306ef080c0a1e
0bf306ef080c0a1e
00d5070c00eafc19
00d5070c00eafc19
00d5070c00eafc19
00d5070c00eafc19
00d5070c00eafc19
00d5070c00eafc19
00d5070c00eafc19
00d5070c00eafc19
15f20f10fa0901f4
15f20f10fa0901f4
15f20f10fa0901f4
15f20f10fa0901f4
15f20f10fa0901f4
15f20f10fa0901f4
15f20f10fa0901f4
15f20f10fa0901f4
05fdf6faf9110404
05fdf6faf9110404
05fdf6faf9110404
05fdf6faf9110404
05fdf6faf9110404
05fdf6faf9110404
05fdf6faf9110404
05fdf6faf9110404
faf7eff8ebfff01d
faf7eff8ebfff01d
faf7eff8ebfff01d
faf7eff8ebfff01d
faf7eff8ebfff01d
faf7eff8ebfff01d
faf7eff8ebfff01d
faf7eff8ebfff01d
08e2222a110e1c0c
08e2222a110e1c0c
08e2222a110e1c0c
08e2222a110e1c0c
08e2222a110e1c0c
08e2222a110e1c0c
08e2222a110e1c0c
08e2222a110e1c0c
f608f613eaf6ebf5
f608f613eaf6ebf5
f608f613eaf6ebf5
f608f613eaf6ebf5
f608f613eaf6ebf5
f608f613eaf6ebf5
f608f613eaf6ebf5
f608f613eaf6ebf5
050b15070d18fc1b
050b15070d18fc1b
050b15070d18fc1b
050b15070d18fc1b
050b15070d18fc1b
050b15070d18fc1b
050b15070d18fc1b
050b15070d18fc1b
0107fdff0702ffff
0107fdff0702ffff
0107fdff0702ffff
0107fdff0702ffff
0107fdff0702ffff
0107fdff0702ffff
0107fdff0702ffff
0107fdff0702ffff
0102040100000102
0102040100000102
0102040100000102
0102040100000102
0102040100000102
0102040100000102
0102040100000102
0102040100000102
03fd000002040301
03fd000002040301
03fd000002040301
03fd000002040301
03fd000002040301
03fd000002040301
03fd000002040301
03fd000002040301
ff00040302000100
ff00040302000100
ff00040302000100
ff00040302000100
ff00040302000100
ff00040302000100
ff00040302000100
ff00040302000100
03010001010301fe
03010001010301fe
03010001010301fe
03010001010301fe
03010001010301fe
03010001010301fe
03010001010301fe
03010001010301fe
0101000401ff0102
0101000401ff0102
0101000401ff0102
0101000401ff0102
0101000401ff0102
0101000401ff0102
0101000401ff0102
0101000401ff0102
00fe020301010104
00fe020301010104
00fe020301010104
00fe020301010104
00fe020301010104
00fe020301010104
00fe020301010104
00fe020301010104
01ffff030603ff02
01ffff030603ff02
01ffff030603ff02
01ffff030603ff02
01ffff030603ff02
01ffff030603ff02
01ffff030603ff02
01ffff030603ff02
08fff8fdf70904fe
08fff8fdf70904fe
08fff8fdf70904fe
08fff8fdf70904fe
08fff8fdf70904fe
08fff8fdf70904fe
08fff8fdf70904fe
08fff8fdf70904fe
f30bf007effc01f6
f30bf007effc01f6
f30bf007effc01f6
f30bf007effc01f6
f30bf007effc01f6
f30bf007effc01f6
f30bf007effc01f6
f30bf007effc01f6
f708fff3f6f6f9fa
f708fff3f6f6f9fa
f708fff3f6f6f9fa
f708fff3f6f6f9fa
f708fff3f6f6f9fa
f708fff3f6f6f9fa
f708fff3f6f6f9fa
f708fff3f6f6f9fa
07fdf202f3fbff05
07fdf202f3fbff05
07fdf202f3fbff05
07fdf202f3fbff05
07fdf202f3fbff05
07fdf202f3fbff05
07fdf202f3fbff05
07fdf202f3fbff05
f7f9fcebd8fbff03
f7f9fcebd8fbff03
f7f9fcebd8fbff03
f7f9fcebd8fbff03
f7f9fcebd8fbff03
f7f9fcebd8fbff03
f7f9fcebd8fbff03
f7f9fcebd8fbff03
f8f8f1fbeef4f807
f8f8f1fbeef4f807
f8f8f1fbeef4f807
f8f8f1fbeef4f807
f8f8f1fbeef4f807
f8f8f1fbeef4f807
f8f8f1fbeef4f807
f8f8f1fbeef4f807
f10507060806f807
f10507060806f807
f10507060806f807
f10507060806f807
f10507060806f807
f10507060806f807
f10507060806f807
f10507060806f807
f7fdf1f6fef703f7
f7fdf1f6fef703f7
f7fdf1f6fef703f7
f7fdf1f6fef703f7
f7fdf1f6fef703f7
f7fdf1f6fef703f7
f7fdf1f6fef703f7
f7fdf1f6fef703f7
04f40817f1141724
04f40817f1141724
04f40817f1141724
04f40817f1141724
04f40817f1141724
04f40817f1141724
04f40817f1141724
04f40817f1141724
08ff080c171101fc
08ff080c171101fc
08ff080c171101fc
08ff080c171101fc
08ff080c171101fc
08ff080c171101fc
08ff080c171101fc
08ff080c171101fc
25f80615fd060201
25f80615fd060201
25f80615fd060201
25f80615fd060201
25f80615fd060201
25f80615fd060201
25f80615fd060201
25f80615fd060201
fd1510030c0410e2
fd1510030c0410e2
fd1510030c0410e2
fd1510030c0410e2
fd1510030c0410e2
fd1510030c0410e2
fd1510030c0410e2
fd1510030c0410e2
f605031209082113
f605031209082113
f605031209082113
f605031209082113
f605031209082113
f605031209082113
f605031209082113
f605031209082113
000306050cf8170b
000306050cf8170b
000306050cf8170b
000306050cf8170b
000306050cf8170b
000306050cf8170b
000306050cf8170b
000306050cf8170b
041807f1fcf6f1f7
041807f1fcf6f1f7
041807f1fcf6f1f7
041807f1fcf6f1f7
041807f1fcf6f1f7
041807f1fcf6f1f7
041807f1fcf6f1f7
041807f1fcf6f1f7
fd1328fd15070901
fd1328fd15070901
fd1328fd15070901
fd1328fd15070901
fd1328fd15070901
fd1328fd15070901
fd1328fd15070901
fd1328fd15070901
04fbff00feff0000
04fbff00feff0000
04fbff00feff0000
04fbff00feff0000
04fbff00feff0000
04fbff00feff0000
04fbff00feff0000
04fbff00feff0000
fe02ff03ff0001ff
fe02ff03ff0001ff
fe02ff03ff0001ff
fe02ff03ff0001ff
fe02ff03ff0001ff
fe02ff03ff0001ff
fe02ff03ff0001ff
fe02ff03ff0001ff
03fffd0400ff0103
03fffd0400ff0103
03fffd0400ff0103
03fffd0400ff0103
03fffd0400ff0103
03fffd0400ff0103
03fffd0400ff0103
03fffd0400ff0103
0200040000ff01ff
0200040000ff01ff
0200040000ff01ff
0200040000ff01ff
0200040000ff01ff
0200040000ff01ff
0200040000ff01ff
0200040000ff01ff
ffff07fffe000000
ffff07fffe000000
ffff07fffe000000
ffff07fffe000000
ffff07fffe000000
ffff07fffe000000
ffff07fffe000000
ffff07fffe000000
010004fefc000304
010004fefc000304
010004fefc000304
010004fefc000304
010004fefc000304
010004fefc000304
010004fefc000304
010004fefc000304
0102030000fffefe
0102030000fffefe
0102030000fffefe
0102030000fffefe
0102030000fffefe
0102030000fffefe
0102030000fffefe
0102030000fffefe
0200ff0005030203
0200ff0005030203
0200ff0005030203
0200ff0005030203
0200ff0005030203
0200ff0005030203
0200ff0005030203
0200ff0005030203
1016f9091af5ed0d
1016f9091af5ed0d
1016f9091af5ed0d
1016f9091af5ed0d
1016f9091af5ed0d
1016f9091af5ed0d
1016f9091af5ed0d
1016f9091af5ed0d
f608f7f9eff5f70c
f608f7f9eff5f70c
f608f7f9eff5f70c
f608f7f9eff5f70c
f608f7f9eff5f70c
f608f7f9eff5f70c
f608f7f9eff5f70c
f608f7f9eff5f70c
100fe21d090c0eef
100fe21d090c0eef
100fe21d090c0eef
100fe21d090c0eef
100fe21d090c0eef
100fe21d090c0eef
100fe21d090c0eef
100fe21d090c0eef
140cf9ec13fe09fe
140cf9ec13fe09fe
140cf9ec13fe09fe
140cf9ec13fe09fe
140cf9ec13fe09fe
140cf9ec13fe09fe
140cf9ec13fe09fe
140cf9ec13fe09fe
f6f4fa0dfb0c0def
f6f4fa0dfb0c0def
f6f4fa0dfb0c0def
f6f4fa0dfb0c0def
f6f4fa0dfb0c0def
f6f4fa0dfb0c0def
f6f4fa0dfb0c0def
f6f4fa0dfb0c0def
ddf3f6f8fcf8f7f1
ddf3f6f8fcf8f7f1
ddf3f6f8fcf8f7f1
ddf3f6f8fcf8f7f1
ddf3f6f8fcf8f7f1
ddf3f6f8fcf8f7f1
ddf3f6f8fcf8f7f1
ddf3f6f8fcf8f7f1
0b190df314180c10
0b190df314180c10
0b190df314180c10
0b190df314180c10
0b190df314180c10
0b190df314180c10
0b190df314180c10
0b190df314180c10
18fff8010df9f411
18fff8010df9f411
18fff8010df9f411
18fff8010df9f411
18fff8010df9f411
18fff8010df9f411
18fff8010df9f411
18fff8010df9f411
16f814f8f534f60f
16f814f8f534f60f
16f814f8f534f60f
16f814f8f534f60f
16f814f8f534f60f
16f814f8f534f60f
16f814f8f534f60f
16f814f8f534f60f
e8f8f81207fff7f7
e8f8f81207fff7f7
e8f8f81207fff7f7
e8f8f81207fff7f7
e8f8f81207fff7f7
e8f8f81207fff7f7
e8f8f81207fff7f7
e8f8f81207fff7f7
f30ef3f6221719f8
f30ef3f6221719f8
f30ef3f6221719f8
f30ef3f6221719f8
f30ef3f6221719f8
f30ef3f6221719f8
f30ef3f6221719f8
f30ef3f6221719f8
1c0bf6fb031d0cf0
1c0bf6fb031d0cf0
1c0bf6fb031d0cf0
1c0bf6fb031d0cf0
1c0bf6fb031d0cf0
1c0bf6fb031d0cf0
1c0bf6fb031d0cf0
1c0bf6fb031d0cf0
170af8f515ebf90a
170af8f515ebf90a
170af8f515ebf90a
170af8f515ebf90a
170af8f515ebf90a
170af8f515ebf90a
170af8f515ebf90a
170af8f515ebf90a
1ef5ed02070ff7f7
1ef5ed02070ff7f7
1ef5ed02070ff7f7
1ef5ed02070ff7f7
1ef5ed02070ff7f7
1ef5ed02070ff7f7
1ef5ed02070ff7f7
1ef5ed02070ff7f7
f703190ff60af50b
f703190ff60af50b
f703190ff60af50b
f703190ff60af50b
f703190ff60af50b
f703190ff60af50b
f703190ff60af50b
f703190ff60af50b
f40d10fce111f30c
f40d10fce111f30c
f40d10fce111f30c
f40d10fce111f30c
f40d10fce111f30c
f40d10fce111f30c
f40d10fce111f30c
f40d10fce111f30c
0b08fb06f6f80df6
0b08fb06f6f80df6
0b08fb06f6f80df6
0b08fb06f6f80df6
0b08fb06f6f80df6
0b08fb06f6f80df6
0b08fb06f6f80df6
0b08fb06f6f80df6
0a090f0bf8090e0d
0a090f0bf8090e0d
0a090f0bf8090e0d
0a090f0bf8090e0d
0a090f0bf8090e0d
0a090f0bf8090e0d
0a090f0bf8090e0d
0a090f0bf8090e0d
f7f70b100df30b0d
f7f70b100df30b0d
f7f70b100df30b0d
f7f70b100df30b0d
f7f70b100df30b0d
f7f70b100df30b0d
f7f70b100df30b0d
f7f70b100df30b0d
f90cfa0cf70ef90c
f90cfa0cf70ef90c
f90cfa0cf70ef90c
f90cfa0cf70ef90c
f90cfa0cf70ef90c
f90cfa0cf70ef90c
f90cfa0cf70ef90c
f90cfa0cf70ef90c
06fc0f0d070d0209
06fc0f0d070d0209
06fc0f0d070d0209
06fc0f0d070d0209
06fc0f0d070d0209
06fc0f0d070d0209
06fc0f0d070d0209
06fc0f0d070d0209
09fcf9f8f9ff09f6
09fcf9f8f9ff09f6
09fcf9f8f9ff09f6
09fcf9f8f9ff09f6
09fcf9f8f9ff09f6
09fcf9f8f9ff09f6
09fcf9f8f9ff09f6
09fcf9f8f9ff09f6
f6fa0b120afd0bfa
f6fa0b120afd0bfa
f6fa0b120afd0bfa
f6fa0b120afd0bfa
f6fa0b120afd0bfa
f6fa0b120afd0bfa
f6fa0b120afd0bfa
f6fa0b120afd0bfa
fa0d070bf8f9f8f6
fa0d070bf8f9f8f6
fa0d070bf8f9f8f6
fa0d070bf8f9f8f6
fa0d070bf8f9f8f6
fa0d070bf8f9f8f6
fa0d070bf8f9f8f6
fa0d070bf8f9f8f6
0afaf40f0d0cf608
0afaf40f0d0cf608
0afaf40f0d0cf608
0afaf40f0d0cf608
0afaf40f0d0cf608
0afaf40f0d0cf608
0afaf40f0d0cf608
0afaf40f0d0cf608
0cf60afa0c0b0c0a
0cf60afa0c0b0c0a
0cf60afa0c0b0c0a
0cf60afa0c0b0c0a
0cf60afa0c0b0c0a
0cf60afa0c0b0c0a
0cf60afa0c0b0c0a
0cf60afa0c0b0c0a
0ef9f70b080d0cfa
0ef9f70b080d0cfa
0ef9f70b080d0cfa
0ef9f70b080d0cfa
0ef9f70b080d0cfa
0ef9f70b080d0cfa
0ef9f70b080d0cfa
0ef9f70b080d0cfa
f70c0b0af50cf704
f70c0b0af50cf704
f70c0b0af50cf704
f70c0b0af50cf704
f70c0b0af50cf704
f70c0b0af50cf704
f70c0b0af50cf704
f70c0b0af50cf704
f9fc0afbf808f8f9
f9fc0afbf808f8f9
f9fc0afbf808f8f9
f9fc0afbf808f8f9
f9fc0afbf808f8f9
f9fc0afbf808f8f9
f9fc0afbf808f8f9
f9fc0afbf808f8f9
0a0c010af6f6f80a
0a0c010af6f6f80a
0a0c010af6f6f80a
0a0c010af6f6f80a
0a0c010af6f6f80a
0a0c010af6f6f80a
0a0c010af6f6f80a
0a0c010af6f6f80a
0af8f8ff0d0c0df4
0af8f8ff0d0c0df4
0af8f8ff0d0c0df4
0af8f8ff0d0c0df4
0af8f8ff0d0c0df4
0af8f8ff0d0c0df4
0af8f8ff0d0c0df4
0af8f8ff0d0c0df4
f50bf40c09050309
f50bf40c09050309
f50bf40c09050309
f50bf40c09050309
f50bf40c09050309
f50bf40c09050309
f50bf40c09050309
f50bf40c09050309
0204020404000202
0204020404000202
0204020404000202
0204020404000202
0204020404000202
0204020404000202
0204020404000202
0204020404000202
0103020501ff0202
0103020501ff0202
0103020501ff0202
0103020501ff0202
0103020501ff0202
0103020501ff0202
0103020501ff0202
0103020501ff0202
00ff01ff000001fe
00ff01ff000001fe
00ff01ff000001fe
00ff01ff000001fe
00ff01ff000001fe
00ff01ff000001fe
00ff01ff000001fe
00ff01ff000001fe
00fffefe01ff0201
00fffefe01ff0201
00fffefe01ff0201
00fffefe01ff0201
00fffefe01ff0201
00fffefe01ff0201
00fffefe01ff0201
00fffefe01ff0201
01ff000200030000
01ff000200030000
01ff000200030000
01ff000200030000
01ff000200030000
01ff000200030000
01ff000200030000
01ff000200030000
fdfe00000404ff01
fdfe00000404ff01
fdfe00000404ff01
fdfe00000404ff01
fdfe00000404ff01
fdfe00000404ff01
fdfe00000404ff01
fdfe00000404ff01
02fe010100ff0201
02fe010100ff0201
02fe010100ff0201
02fe010100ff0201
02fe010100ff0201
02fe010100ff0201
02fe010100ff0201
02fe010100ff0201
00020103fffefcfd
00020103fffefcfd
00020103fffefcfd
00020103fffefcfd
00020103fffefcfd
00020103fffefcfd
00020103fffefcfd
00020103fffefcfd
010101fdfd0301fe
010101fdfd0301fe
010101fdfd0301fe
010101fdfd0301fe
010101fdfd0301fe
010101fdfd0301fe
010101fdfd0301fe
010101fdfd0301fe
fe02010300ffff02
fe02010300ffff02
fe02010300ffff02
fe02010300ffff02
fe02010300ffff02
fe02010300ffff02
fe02010300ffff02
fe02010300ffff02
fefe020101000201
fefe020101000201
fefe020101000201
fefe020101000201
fefe020101000201
fefe020101000201
fefe020101000201
fefe020101000201
01020100030100ff
01020100030100ff
01020100030100ff
01020100030100ff
01020100030100ff
01020100030100ff
01020100030100ff
01020100030100ff
0100030000ff0101
0100030000ff0101
0100030000ff0101
0100030000ff0101
0100030000ff0101
0100030000ff0101
0100030000ff0101
0100030000ff0101
ff000003fefffeff
ff000003fefffeff
ff000003fefffeff
ff000003fefffeff
ff000003fefffeff
ff000003fefffeff
ff000003fefffeff
ff000003fefffeff
ff01ff0003fe01fd
ff01ff0003fe01fd
ff01ff0003fe01fd
ff01ff0003fe01fd
ff01ff0003fe01fd
ff01ff0003fe01fd
ff01ff0003fe01fd
ff01ff0003fe01fd
00010001ff00ffff
00010001ff00ffff
00010001ff00ffff
00010001ff00ffff
00010001ff00ffff
00010001ff00ffff
00010001ff00ffff
00010001ff00ffff
f3f4f7f10c020109
f3f4f7f10c020109
f3f4f7f10c020109
f3f4f7f10c020109
f3f4f7f10c020109
f3f4f7f10c020109
f3f4f7f10c020109
f3f4f7f10c020109
f7ff06f8fff507ff
f7ff06f8fff507ff
f7ff06f8fff507ff
f7ff06f8fff507ff
f7ff06f8fff507ff
f7ff06f8fff507ff
f7ff06f8fff507ff
f7ff06f8fff507ff
ff03f6020614f8fa
ff03f6020614f8fa
ff03f6020614f8fa
ff03f6020614f8fa
ff03f6020614f8fa
ff03f6020614f8fa
ff03f6020614f8fa
ff03f6020614f8fa
fd06fbfb0208f601
fd06fbfb0208f601
fd06fbfb0208f601
fd06fbfb0208f601
fd06fbfb0208f601
fd06fbfb0208f601
fd06fbfb0208f601
fd06fbfb0208f601
f9f30804f601fd06
f9f30804f601fd06
f9f30804f601fd06
f9f30804f601fd06
f9f30804f601fd06
f9f30804f601fd06
f9f30804f601fd06
f9f30804f601fd06
fafbfe03f3faf809
fafbfe03f3faf809
fafbfe03f3faf809
fafbfe03f3faf809
fafbfe03f3faf809
fafbfe03f3faf809
fafbfe03f3faf809
fafbfe03f3faf809
00f1ff0ff1f702f5
00f1ff0ff1f702f5
00f1ff0ff1f702f5
00f1ff0ff1f702f5
00f1ff0ff1f702f5
00f1ff0ff1f702f5
00f1ff0ff1f702f5
00f1ff0ff1f702f5
f403f6fb02060902
f403f6fb02060902
f403f6fb02060902
f403f6fb02060902
f403f6fb02060902
f403f6fb02060902
f403f6fb02060902
f403f6fb02060902
fcfa06090306070a
fcfa06090306070a
fcfa06090306070a
fcfa06090306070a
fcfa06090306070a
fcfa06090306070a
fcfa06090306070a
fcfa06090306070a
010ff601030202f7
010ff601030202f7
010ff601030202f7
010ff601030202f7
010ff601030202f7
010ff601030202f7
010ff601030202f7
010ff601030202f7
0a06fafb06fe000a
0a06fafb06fe000a
0a06fafb06fe000a
0a06fafb06fe000a
0a06fafb06fe000a
0a06fafb06fe000a
0a06fafb06fe000a
0a06fafb06fe000a
0904030002000006
0904030002000006
0904030002000006
0904030002000006
0904030002000006
0904030002000006
0904030002000006
0904030002000006
f8fbf7f0fcf2fc00
f8fbf7f0fcf2fc00
f8fbf7f0fcf2fc00
f8fbf7f0fcf2fc00
f8fbf7f0fcf2fc00
f8fbf7f0fcf2fc00
f8fbf7f0fcf2fc00
f8fbf7f0fcf2fc00
f405f705020708fd
f405f705020708fd
f405f705020708fd
f405f705020708fd
f405f705020708fd
f405f705020708fd
f405f705020708fd
f405f705020708fd
08f902fef90a0c09
08f902fef90a0c09
08f902fef90a0c09
08f902fef90a0c09
08f902fef90a0c09
08f902fef90a0c09
08f902fef90a0c09
08f902fef90a0c09
0df2080002fafbf1
0df2080002fafbf1
0df2080002fafbf1
0df2080002fafbf1
0df2080002fafbf1
0df2080002fafbf1
0df2080002fafbf1
0df2080002fafbf1
0102030203010101
0102030203010101
0102030203010101
0102030203010101
0102030203010101
0102030203010101
0102030203010101
0102030203010101
01fe000300ff02fd
01fe000300ff02fd
01fe000300ff02fd
01fe000300ff02fd
01fe000300ff02fd
01fe000300ff02fd
01fe000300ff02fd
01fe000300ff02fd
010203000001ffff
010203000001ffff
010203000001ffff
010203000001ffff
010203000001ffff
010203000001ffff
010203000001ffff
010203000001ffff
02feff02fe0000ff
02feff02fe0000ff
02feff02fe0000ff
02feff02fe0000ff
02feff02fe0000ff
02feff02fe0000ff
02feff02fe0000ff
02feff02fe0000ff
00fffe0103fdfffe
00fffe0103fdfffe
00fffe0103fdfffe
00fffe0103fdfffe
00fffe0103fdfffe
00fffe0103fdfffe
00fffe0103fdfffe
00fffe0103fdfffe
fdff00fffb010000
fdff00fffb010000
fdff00fffb010000
fdff00fffb010000
fdff00fffb010000
fdff00fffb010000
fdff00fffb010000
fdff00fffb010000
fefe00010001fd01
fefe00010001fd01
fefe00010001fd01
fefe00010001fd01
fefe00010001fd01
fefe00010001fd01
fefe00010001fd01
fefe00010001fd01
feff01fffffe0000
feff01fffffe0000
feff01fffffe0000
feff01fffffe0000
feff01fffffe0000
feff01fffffe0000
feff01fffffe0000
feff01fffffe0000
03fffffe04020200
03fffffe04020200
03fffffe04020200
03fffffe04020200
03fffffe04020200
03fffffe04020200
03fffffe04020200
03fffffe04020200
0003fa04ff00fffe
0003fa04ff00fffe
0003fa04ff00fffe
0003fa04ff00fffe
0003fa04ff00fffe
0003fa04ff00fffe
0003fa04ff00fffe
0003fa04ff00fffe
020200fd0500fcff
020200fd0500fcff
020200fd0500fcff
020200fd0500fcff
020200fd0500fcff
020200fd0500fcff
020200fd0500fcff
020200fd0500fcff
020101010100fffb
020101010100fffb
020101010100fffb
020101010100fffb
020101010100fffb
020101010100fffb
020101010100fffb
020101010100fffb
ff03fffd01fefd02
ff03fffd01fefd02
ff03fffd01fefd02
ff03fffd01fefd02
ff03fffd01fefd02
ff03fffd01fefd02
ff03fffd01fefd02
ff03fffd01fefd02
0101fffdff010001
0101fffdff010001
0101fffdff010001
0101fffdff010001
0101fffdff010001
0101fffdff010001
0101fffdff010001
0101fffdff010001
00ff02ff00fdfe01
00ff02ff00fdfe01
00ff02ff00fdfe01
00ff02ff00fdfe01
00ff02ff00fdfe01
00ff02ff00fdfe01
00ff02ff00fdfe01
00ff02ff00fdfe01
00feff000303fcfe
00feff000303fcfe
00feff000303fcfe
00feff000303fcfe
00feff000303fcfe
00feff000303fcfe
00feff000303fcfe
00feff000303fcfe
fb000103070900fe
fb000103070900fe
fb000103070900fe
fb000103070900fe
fb000103070900fe
fb000103070900fe
fb000103070900fe
fb000103070900fe
fafbfdfcf80008fd
fafbfdfcf80008fd
fafbfdfcf80008fd
fafbfdfcf80008fd
fafbfdfcf80008fd
fafbfdfcf80008fd
fafbfdfcf80008fd
fafbfdfcf80008fd
040c00ff080805f8
040c00ff080805f8
040c00ff080805f8
040c00ff080805f8
040c00ff080805f8
040c00ff080805f8
040c00ff080805f8
040c00ff080805f8
00fff9080805030b
00fff9080805030b
00fff9080805030b
00fff9080805030b
00fff9080805030b
00fff9080805030b
00fff9080805030b
00fff9080805030b
f706010bf9040b06
f706010bf9040b06
f706010bf9040b06
f706010bf9040b06
f706010bf9040b06
f706010bf9040b06
f706010bf9040b06
f706010bf9040b06
fd07ff0104fcfc0a
fd07ff0104fcfc0a
fd07ff0104fcfc0a
fd07ff0104fcfc0a
fd07ff0104fcfc0a
fd07ff0104fcfc0a
fd07ff0104fcfc0a
fd07ff0104fcfc0a
fbfc0c00fa060bfd
fbfc0c00fa060bfd
fbfc0c00fa060bfd
fbfc0c00fa060bfd
fbfc0c00fa060bfd
fbfc0c00fa060bfd
fbfc0c00fa060bfd
fbfc0c00fa060bfd
06fdf70af9050507
06fdf70af9050507
06fdf70af9050507
06fdf70af9050507
06fdf70af9050507
06fdf70af9050507
06fdf70af9050507
06fdf70af9050507
fd02fcfd01fcfdf9
fd02fcfd01fcfdf9
fd02fcfd01fcfdf9
fd02fcfd01fcfdf9
fd02fcfd01fcfdf9
fd02fcfd01fcfdf9
fd02fcfd01fcfdf9
fd02fcfd01fcfdf9
0101fd00fa080505
0101fd00fa080505
0101fd00fa080505
0101fd00fa080505
0101fd00fa080505
0101fd00fa080505
0101fd00fa080505
0101fd00fa080505
0005fd01fa05060a
0005fd01fa05060a
0005fd01fa05060a
0005fd01fa05060a
0005fd01fa05060a
0005fd01fa05060a
0005fd01fa05060a
0005fd01fa05060a
02060d050b0607fa
02060d050b0607fa
02060d050b0607fa
02060d050b0607fa
02060d050b0607fa
02060d050b0607fa
02060d050b0607fa
02060d050b0607fa
00f900f9f9060808
00f900f9f9060808
00f900f9f9060808
00f900f9f9060808
00f900f9f9060808
00f900f9f9060808
00f900f9f9060808
00f900f9f9060808
fb03f8fb06f7fc0b
fb03f8fb06f7fc0b
fb03f8fb06f7fc0b
fb03f8fb06f7fc0b
fb03f8fb06f7fc0b
fb03f8fb06f7fc0b
fb03f8fb06f7fc0b
fb03f8fb06f7fc0b
03060702080502fd
03060702080502fd
03060702080502fd
03060702080502fd
03060702080502fd
03060702080502fd
03060702080502fd
03060702080502fd
09fe0202ff00ff01
09fe0202ff00ff01
09fe0202ff00ff01
09fe0202ff00ff01
09fe0202ff00ff01
09fe0202ff00ff01
09fe0202ff00ff01
09fe0202ff00ff01
02030104f8020904
02030104f8020904
02030104f8020904
02030104f8020904
02030104f8020904
02030104f8020904
02030104f8020904
02030104f8020904
000202fa0a02fcfe
000202fa0a02fcfe
000202fa0a02fcfe
000202fa0a02fcfe
000202fa0a02fcfe
000202fa0a02fcfe
000202fa0a02fcfe
000202fa0a02fcfe
0e05ff0e00fefefd
0e05ff0e00fefefd
0e05ff0e00fefefd
0e05ff0e00fefefd
0e05ff0e00fefefd
0e05ff0e00fefefd
0e05ff0e00fefefd
0e05ff0e00fefefd
fc01fffafdfcfcf9
fc01fffafdfcfcf9
fc01fffafdfcfcf9
fc01fffafdfcfcf9
fc01fffafdfcfcf9
fc01fffafdfcfcf9
fc01fffafdfcfcf9
fc01fffafdfcfcf9
010101000705fc01
010101000705fc01
010101000705fc01
010101000705fc01
010101000705fc01
010101000705fc01
010101000705fc01
010101000705fc01
09fb030007fefc15
09fb030007fefc15
09fb030007fefc15
09fb030007fefc15
09fb030007fefc15
09fb030007fefc15
09fb030007fefc15
09fb030007fefc15
05f00a010104fffb
05f00a010104fffb
05f00a010104fffb
05f00a010104fffb
05f00a010104fffb
05f00a010104fffb
05f00a010104fffb
05f00a010104fffb
fdf7fd0201fa040b
fdf7fd0201fa040b
fdf7fd0201fa040b
fdf7fd0201fa040b
fdf7fd0201fa040b
fdf7fd0201fa040b
fdf7fd0201fa040b
fdf7fd0201fa040b
fcfffb05010e0105
fcfffb05010e0105
fcfffb05010e0105
fcfffb05010e0105
fcfffb05010e0105
fcfffb05010e0105
fcfffb05010e0105
fcfffb05010e0105
00fdfb04fefa0700
00fdfb04fefa0700
00fdfb04fefa0700
00fdfb04fefa0700
00fdfb04fefa0700
00fdfb04fefa0700
00fdfb04fefa0700
00fdfb04fefa0700
070305040d010201
070305040d010201
070305040d010201
070305040d010201
070305040d010201
070305040d010201
070305040d010201
070305040d010201
ff04030005fe08fd
ff04030005fe08fd
ff04030005fe08fd
ff04030005fe08fd
ff04030005fe08fd
ff04030005fe08fd
ff04030005fe08fd
ff04030005fe08fd
020efa0ff9000102
020efa0ff9000102
020efa0ff9000102
020efa0ff9000102
020efa0ff9000102
020efa0ff9000102
020efa0ff9000102
020efa0ff9000102
020304fcfc05fa01
020304fcfc05fa01
020304fcfc05fa01
020304fcfc05fa01
020304fcfc05fa01
020304fcfc05fa01
020304fcfc05fa01
020304fcfc05fa01
0502fa040903f905
0502fa040903f905
0502fa040903f905
0502fa040903f905
0502fa040903f905
0502fa040903f905
0502fa040903f905
0502fa040903f905
f80c00fcfffa0001
f80c00fcfffa0001
f80c00fcfffa0001
f80c00fcfffa0001
f80c00fcfffa0001
f80c00fcfffa0001
f80c00fcfffa0001
f80c00fcfffa0001
010202020000fe00
010202020000fe00
010202020000fe00
010202020000fe00
010202020000fe00
010202020000fe00
010202020000fe00
010202020000fe00
00ff000000fffffe
00ff000000fffffe
00ff000000fffffe
00ff000000fffffe
00ff000000fffffe
00ff000000fffffe
00ff000000fffffe
00ff000000fffffe
000301fdff0000ff
000301fdff0000ff
000301fdff0000ff
000301fdff0000ff
000301fdff0000ff
000301fdff0000ff
000301fdff0000ff
000301fdff0000ff
fffefefe02000200
fffefefe02000200
fffefefe02000200
fffefefe02000200
fffefefe02000200
fffefefe02000200
fffefefe02000200
fffefefe02000200
fe00fefcfd00fe00
fe00fefcfd00fe00
fe00fefcfd00fe00
fe00fefcfd00fe00
fe00fefcfd00fe00
fe00fefcfd00fe00
fe00fefcfd00fe00
fe00fefcfd00fe00
0202ff0000ff0200
0202ff0000ff0200
0202ff0000ff0200
0202ff0000ff0200
0202ff0000ff0200
0202ff0000ff0200
0202ff0000ff0200
0202ff0000ff0200
010000ff01020100
010000ff01020100
010000ff01020100
010000ff01020100
010000ff01020100
010000ff01020100
010000ff01020100
010000ff01020100
0100ff0002000203
0100ff0002000203
0100ff0002000203
0100ff0002000203
0100ff0002000203
0100ff0002000203
0100ff0002000203
0100ff0002000203
fffe000000fe0003
fffe000000fe0003
fffe000000fe0003
fffe000000fe0003
fffe000000fe0003
fffe000000fe0003
fffe000000fe0003
fffe000000fe0003
0101fd00fdfe03fe
0101fd00fdfe03fe
0101fd00fdfe03fe
0101fd00fdfe03fe
0101fd00fdfe03fe
0101fd00fdfe03fe
0101fd00fdfe03fe
0101fd00fdfe03fe
0201fb0103ff0200
0201fb0103ff0200
0201fb0103ff0200
0201fb0103ff0200
0201fb0103ff0200
0201fb0103ff0200
0201fb0103ff0200
0201fb0103ff0200
fe010002fe010201
fe010002fe010201
fe010002fe010201
fe010002fe010201
fe010002fe010201
fe010002fe010201
fe010002fe010201
fe010002fe010201
01fdffff01fd00ff
01fdffff01fd00ff
01fdffff01fd00ff
01fdffff01fd00ff
01fdffff01fd00ff
01fdffff01fd00ff
01fdffff01fd00ff
01fdffff01fd00ff
0000fdff02000100
0000fdff02000100
0000fdff02000100
0000fdff02000100
0000fdff02000100
0000fdff02000100
0000fdff02000100
0000fdff02000100
00ff01ff00000000
00ff01ff00000000
00ff01ff00000000
00ff01ff00000000
00ff01ff00000000
00ff01ff00000000
00ff01ff00000000
00ff01ff00000000
ff0000ff00ff0000
ff0000ff00ff0000
ff0000ff00ff0000
ff0000ff00ff0000
ff0000ff00ff0000
ff0000ff00ff0000
ff0000ff00ff0000
ff0000ff00ff0000
fafe04fbfefdfa02
fafe04fbfefdfa02
fafe04fbfefdfa02
fafe04fbfefdfa02
fafe04fbfefdfa02
fafe04fbfefdfa02
fafe04fbfefdfa02
fafe04fbfefdfa02
fa050603fb03fd01
fa050603fb03fd01
fa050603fb03fd01
fa050603fb03fd01
fa050603fb03fd01
fa050603fb03fd01
fa050603fb03fd01
fa050603fb03fd01
fefc0502fcfb0007
fefc0502fcfb0007
fefc0502fcfb0007
fefc0502fcfb0007
fefc0502fcfb0007
fefc0502fcfb0007
fefc0502fcfb0007
fefc0502fcfb0007
07fafafc05fe06fa
07fafafc05fe06fa
07fafafc05fe06fa
07fafafc05fe06fa
07fafafc05fe06fa
07fafafc05fe06fa
07fafafc05fe06fa
07fafafc05fe06fa
f8ff0602fe030308
f8ff0602fe030308
f8ff0602fe030308
f8ff0602fe030308
f8ff0602fe030308
f8ff0602fe030308
f8ff0602fe030308
f8ff0602fe030308
fd02fd030507fefd
fd02fd030507fefd
fd02fd030507fefd
fd02fd030507fefd
fd02fd030507fefd
fd02fd030507fefd
fd02fd030507fefd
fd02fd030507fefd
02fcfb0607ff05fa
02fcfb0607ff05fa
02fcfb0607ff05fa
02fcfb0607ff05fa
02fcfb0607ff05fa
02fcfb0607ff05fa
02fcfb0607ff05fa
02fcfb0607ff05fa
fc04f9fafef9fcfe
fc04f9fafef9fcfe
fc04f9fafef9fcfe
fc04f9fafef9fcfe
fc04f9fafef9fcfe
fc04f9fafef9fcfe
fc04f9fafef9fcfe
fc04f9fafef9fcfe
fbfc0302fffdf807
fbfc0302fffdf807
fbfc0302fffdf807
fbfc0302fffdf807
fbfc0302fffdf807
fbfc0302fffdf807
fbfc0302fffdf807
fbfc0302fffdf807
0708ffff05fb02fe
0708ffff05fb02fe
0708ffff05fb02fe
0708ffff05fb02fe
0708ffff05fb02fe
0708ffff05fb02fe
0708ffff05fb02fe
0708ffff05fb02fe
0506fb0701fb0305
0506fb0701fb0305
0506fb0701fb0305
0506fb0701fb0305
0506fb0701fb0305
0506fb0701fb0305
0506fb0701fb0305
0506fb0701fb0305
050401fcfaf9faff
050401fcfaf9faff
050401fcfaf9faff
050401fcfaf9faff
050401fcfaf9faff
050401fcfaf9faff
050401fcfaf9faff
050401fcfaf9faff
fd05f907fcfb0100
fd05f907fcfb0100
fd05f907fcfb0100
fd05f907fcfb0100
fd05f907fcfb0100
fd05f907fcfb0100
fd05f907fcfb0100
fd05f907fcfb0100
03f8010105050501
03f8010105050501
03f8010105050501
03f8010105050501
03f8010105050501
03f8010105050501
03f8010105050501
03f8010105050501
0306fafafafd0204
0306fafafafd0204
0306fafafafd0204
0306fafafafd0204
0306fafafafd0204
0306fafafafd0204
0306fafafafd0204
0306fafafafd0204
fafbfcfe0604fa01
fafbfcfe0604fa01
fafbfcfe0604fa01
fafbfcfe0604fa01
fafbfcfe0604fa01
fafbfcfe0604fa01
fafbfcfe0604fa01
fafbfcfe0604fa01
051001fbf30cfcf2
051001fbf30cfcf2
051001fbf30cfcf2
051001fbf30cfcf2
051001fbf30cfcf2
051001fbf30cfcf2
051001fbf30cfcf2
051001fbf30cfcf2
1313f3fbff010f0c
1313f3fbff010f0c
1313f3fbff010f0c
1313f3fbff010f0c
1313f3fbff010f0c
1313f3fbff010f0c
1313f3fbff010f0c
1313f3fbff010f0c
02fb0af3fcf802ea
02fb0af3fcf802ea
02fb0af3fcf802ea
02fb0af3fcf802ea
02fb0af3fcf802ea
02fb0af3fcf802ea
02fb0af3fcf802ea
02fb0af3fcf802ea
02faf70701f2f70d
02faf70701f2f70d
02faf70701f2f70d
02faf70701f2f70d
02faf70701f2f70d
02faf70701f2f70d
02faf70701f2f70d
02faf70701f2f70d
06f7001df00d0a06
06f7001df00d0a06
06f7001df00d0a06
06f7001df00d0a06
06f7001df00d0a06
06f7001df00d0a06
06f7001df00d0a06
06f7001df00d0a06
f9020bfd0d120f09
f9020bfd0d120f09
f9020bfd0d120f09
f9020bfd0d120f09
f9020bfd0d120f09
f9020bfd0d120f09
f9020bfd0d120f09
f9020bfd0d120f09
fde9e70bf4f8000b
fde9e70bf4f8000b
fde9e70bf4f8000b
fde9e70bf4f8000b
fde9e70bf4f8000b
fde9e70bf4f8000b
fde9e70bf4f8000b
fde9e70bf4f8000b
0c07eafb0b0d12f9
0c07eafb0b0d12f9
0c07eafb0b0d12f9
0c07eafb0b0d12f9
0c07eafb0b0d12f9
0c07eafb0b0d12f9
0c07eafb0b0d12f9
0c07eafb0b0d12f9
f1f906fe08f0020e
f1f906fe08f0020e
f1f906fe08f0020e
f1f906fe08f0020e
f1f906fe08f0020e
f1f906fe08f0020e
f1f906fe08f0020e
f1f906fe08f0020e
f80bfbf7f70111f0
f80bfbf7f70111f0
f80bfbf7f70111f0
f80bfbf7f70111f0
f80bfbf7f70111f0
f80bfbf7f70111f0
f80bfbf7f70111f0
f80bfbf7f70111f0
f909fb03071e15f4
f909fb03071e15f4
f909fb03071e15f4
f909fb03071e15f4
f909fb03071e15f4
f909fb03071e15f4
f909fb03071e15f4
f909fb03071e15f4
0004021602fbffff
0004021602fbffff
0004021602fbffff
0004021602fbffff
0004021602fbffff
0004021602fbffff
0004021602fbffff
0004021602fbffff
010102f80efb07fd
010102f80efb07fd
010102f80efb07fd
010102f80efb07fd
010102f80efb07fd
010102f80efb07fd
010102f80efb07fd
010102f80efb07fd
03ffedf7ebfef31b
03ffedf7ebfef31b
03ffedf7ebfef31b
03ffedf7ebfef31b
03ffedf7ebfef31b
03ffedf7ebfef31b
03ffedf7ebfef31b
03ffedf7ebfef31b
f9f7fa0300040601
f9f7fa0300040601
f9f7fa0300040601
f9f7fa0300040601
f9f7fa0300040601
f9f7fa0300040601
f9f7fa0300040601
f9f7fa0300040601
16f906ff02fb0ff6
16f906ff02fb0ff6
16f906ff02fb0ff6
16f906ff02fb0ff6
16f906ff02fb0ff6
16f906ff02fb0ff6
16f906ff02fb0ff6
16f906ff02fb0ff6
0101010200000000
0101010200000000
0101010200000000
0101010200000000
0101010200000000
0101010200000000
0101010200000000
0101010200000000
00ff000000000001
00ff000000000001
00ff000000000001
00ff000000000001
00ff000000000001
00ff000000000001
00ff000000000001
00ff000000000001
ffffffff00ff0101
ffffffff00ff0101
ffffffff00ff0101
ffffffff00ff0101
ffffffff00ff0101
ffffffff00ff0101
ffffffff00ff0101
ffffffff00ff0101
010000ffff00ffff
010000ffff00ffff
010000ffff00ffff
010000ffff00ffff
010000ffff00ffff
010000ffff00ffff
010000ffff00ffff
010000ffff00ffff
ff01ff000000fe01
ff01ff000000fe01
ff01ff000000fe01
ff01ff000000fe01
ff01ff000000fe01
ff01ff000000fe01
ff01ff000000fe01
ff01ff000000fe01
ff000100000000ff
ff000100000000ff
ff000100000000ff
ff000100000000ff
ff000100000000ff
ff000100000000ff
ff000100000000ff
ff000100000000ff
000200fe00ffff00
000200fe00ffff00
000200fe00ffff00
000200fe00ffff00
000200fe00ffff00
000200fe00ffff00
000200fe00ffff00
000200fe00ffff00
010000010101ff02
010000010101ff02
010000010101ff02
010000010101ff02
010000010101ff02
010000010101ff02
010000010101ff02
010000010101ff02
ff00010101fffeff
ff00010101fffeff
ff00010101fffeff
ff00010101fffeff
ff00010101fffeff
ff00010101fffeff
ff00010101fffeff
ff00010101fffeff
00fe03ff01ff0001
00fe03ff01ff0001
00fe03ff01ff0001
00fe03ff01ff0001
00fe03ff01ff0001
00fe03ff01ff0001
00fe03ff01ff0001
00fe03ff01ff0001
01fffe0000000000
01fffe0000000000
01fffe0000000000
01fffe0000000000
01fffe0000000000
01fffe0000000000
01fffe0000000000
01fffe0000000000
02fffffffeff00ff
02fffffffeff00ff
02fffffffeff00ff
02fffffffeff00ff
02fffffffeff00ff
02fffffffeff00ff
02fffffffeff00ff
02fffffffeff00ff
fe0001ff01fe0100
fe0001ff01fe0100
fe0001ff01fe0100
fe0001ff01fe0100
fe0001ff01fe0100
fe0001ff01fe0100
fe0001ff01fe0100
fe0001ff01fe0100
ff0001ff00fe00ff
ff0001ff00fe00ff
ff0001ff00fe00ff
ff0001ff00fe00ff
ff0001ff00fe00ff
ff0001ff00fe00ff
ff0001ff00fe00ff
ff0001ff00fe00ff
0100ffff0100fffd
0100ffff0100fffd
0100ffff0100fffd
0100ffff0100fffd
0100ffff0100fffd
0100ffff0100fffd
0100ffff0100fffd
0100ffff0100fffd
000001ffff00ff00
000001ffff00ff00
000001ffff00ff00
000001ffff00ff00
000001ffff00ff00
000001ffff00ff00
000001ffff00ff00
000001ffff00ff00
fa060d0b04000602
fa060d0b04000602
fa060d0b04000602
fa060d0b04000602
fa060d0b04000602
fa060d0b04000602
fa060d0b04000602
fa060d0b04000602
04fb02f8fdf9fe07
04fb02f8fdf9fe07
04fb02f8fdf9fe07
04fb02f8fdf9fe07
04fb02f8fdf9fe07
04fb02f8fdf9fe07
04fb02f8fdf9fe07
04fb02f8fdf9fe07
0106fb0a01f90af9
0106fb0a01f90af9
0106fb0a01f90af9
0106fb0a01f90af9
0106fb0a01f90af9
0106fb0a01f90af9
0106fb0a01f90af9
0106fb0a01f90af9
070a09f8fe000009
070a09f8fe000009
070a09f8fe000009
070a09f8fe000009
070a09f8fe000009
070a09f8fe000009
070a09f8fe000009
070a09f8fe000009
05fafbf9f9070afb
05fafbf9f9070afb
05fafbf9f9070afb
05fafbf9f9070afb
05fafbf9f9070afb
05fafbf9f9070afb
05fafbf9f9070afb
05fafbf9f9070afb
fbfafffc00fd08fb
fbfafffc00fd08fb
fbfafffc00fd08fb
fbfafffc00fd08fb
fbfafffc00fd08fb
fbfafffc00fd08fb
fbfafffc00fd08fb
fbfafffc00fd08fb
0704f803fe060702
0704f803fe060702
0704f803fe060702
0704f803fe060702
0704f803fe060702
0704f803fe060702
0704f803fe060702
0704f803fe060702
060a0106fa0904fe
060a0106fa0904fe
060a0106fa0904fe
060a0106fa0904fe
060a0106fa0904fe
060a0106fa0904fe
060a0106fa0904fe
060a0106fa0904fe
f8fe09ff060105f9
f8fe09ff060105f9
f8fe09ff060105f9
f8fe09ff060105f9
f8fe09ff060105f9
f8fe09ff060105f9
f8fe09ff060105f9
f8fe09ff060105f9
0609fe030309fafc
0609fe030309fafc
0609fe030309fafc
0609fe030309fafc
0609fe030309fafc
0609fe030309fafc
0609fe030309fafc
0609fe030309fafc
0806fb00fdfc0103
0806fb00fdfc0103
0806fb00fdfc0103
0806fb00fdfc0103
0806fb00fdfc0103
0806fb00fdfc0103
0806fb00fdfc0103
0806fb00fdfc0103
0a03fb01fa07fefd
0a03fb01fa07fefd
0a03fb01fa07fefd
0a03fb01fa07fefd
0a03fb01fa07fefd
0a03fb01fa07fefd
0a03fb01fa07fefd
0a03fb01fa07fefd
08090afdfb0c0304
08090afdfb0c0304
08090afdfb0c0304
08090afdfb0c0304
08090afdfb0c0304
08090afdfb0c0304
08090afdfb0c0304
08090afdfb0c0304
020309fef9fb0afb
020309fef9fb0afb
020309fef9fb0afb
020309fef9fb0afb
020309fef9fb0afb
020309fef9fb0afb
020309fef9fb0afb
020309fef9fb0afb
04fbf9fcfa030402
04fbf9fcfa030402
04fbf9fcfa030402
04fbf9fcfa030402
04fbf9fcfa030402
04fbf9fcfa030402
04fbf9fcfa030402
04fbf9fcfa030402
f90b010608f8090c
f90b010608f8090c
f90b010608f8090c
f90b010608f8090c
f90b010608f8090c
f90b010608f8090c
f90b010608f8090c
f90b010608f8090c
ffff09fffe1d0ef1
ffff09fffe1d0ef1
ffff09fffe1d0ef1
ffff09fffe1d0ef1
ffff09fffe1d0ef1
ffff09fffe1d0ef1
ffff09fffe1d0ef1
ffff09fffe1d0ef1
0b0d050ff8070704
0b0d050ff8070704
0b0d050ff8070704
0b0d050ff8070704
0b0d050ff8070704
0b0d050ff8070704
0b0d050ff8070704
0b0d050ff8070704
13ff05fb10fb0214
13ff05fb10fb0214
13ff05fb10fb0214
13ff05fb10fb0214
13ff05fb10fb0214
13ff05fb10fb0214
13ff05fb10fb0214
13ff05fb10fb0214
0002f00c08fcf501
0002f00c08fcf501
0002f00c08fcf501
0002f00c08fcf501
0002f00c08fcf501
0002f00c08fcf501
0002f00c08fcf501
0002f00c08fcf501
06fe120b05e60107
06fe120b05e60107
06fe120b05e60107
06fe120b05e60107
06fe120b05e60107
06fe120b05e60107
06fe120b05e60107
06fe120b05e60107
fff2f81201030bf4
fff2f81201030bf4
fff2f81201030bf4
fff2f81201030bf4
fff2f81201030bf4
fff2f81201030bf4
fff2f81201030bf4
fff2f81201030bf4
f003120907090600
f003120907090600
f003120907090600
f003120907090600
f003120907090600
f003120907090600
f003120907090600
f003120907090600
fe0e07f3f10401f8
fe0e07f3f10401f8
fe0e07f3f10401f8
fe0e07f3f10401f8
fe0e07f3f10401f8
fe0e07f3f10401f8
fe0e07f3f10401f8
fe0e07f3f10401f8
f0fe020904060304
f0fe020904060304
f0fe020904060304
f0fe020904060304
f0fe020904060304
f0fe020904060304
f0fe020904060304
f0fe020904060304
0df2110302ff070c
0df2110302ff070c
0df2110302ff070c
0df2110302ff070c
0df2110302ff070c
0df2110302ff070c
0df2110302ff070c
0df2110302ff070c
f9150cfc091507fe
f9150cfc091507fe
f9150cfc091507fe
f9150cfc091507fe
f9150cfc091507fe
f9150cfc091507fe
f9150cfc091507fe
f9150cfc091507fe
0d1d090106ff0805
0d1d090106ff0805
0d1d090106ff0805
0d1d090106ff0805
0d1d090106ff0805
0d1d090106ff0805
0d1d090106ff0805
0d1d090106ff0805
f9fced0504120704
f9fced0504120704
f9fced0504120704
f9fced0504120704
f9fced0504120704
f9fced0504120704
f9fced0504120704
f9fced0504120704
1604fcf6000c0a01
1604fcf6000c0a01
1604fcf6000c0a01
1604fcf6000c0a01
1604fcf6000c0a01
1604fcf6000c0a01
1604fcf6000c0a01
1604fcf6000c0a01
08fd0c1c01100107
08fd0c1c01100107
08fd0c1c01100107
08fd0c1c01100107
08fd0c1c01100107
08fd0c1c01100107
08fd0c1c01100107
08fd0c1c01100107
0409f40ef70306fd
0409f40ef70306fd
0409f40ef70306fd
0409f40ef70306fd
0409f40ef70306fd
0409f40ef70306fd
0409f40ef70306fd
0409f40ef70306fd
02fdfb0500fb02ff
02fdfb0500fb02ff
02fdfb0500fb02ff
02fdfb0500fb02ff
02fdfb0500fb02ff
02fdfb0500fb02ff
02fdfb0500fb02ff
02fdfb0500fb02ff
0101ff00ff00fdfd
0101ff00ff00fdfd
0101ff00ff00fdfd
0101ff00ff00fdfd
0101ff00ff00fdfd
0101ff00ff00fdfd
0101ff00ff00fdfd
0101ff00ff00fdfd
01ff000300fcff04
01ff000300fcff04
01ff000300fcff04
01ff000300fcff04
01ff000300fcff04
01ff000300fcff04
01ff000300fcff04
01ff000300fcff04
fdfefdfe0100fdfd
fdfefdfe0100fdfd
fdfefdfe0100fdfd
fdfefdfe0100fdfd
fdfefdfe0100fdfd
fdfefdfe0100fdfd
fdfefdfe0100fdfd
fdfefdfe0100fdfd
00fdfe00fe00fffd
00fdfe00fe00fffd
00fdfe00fe00fffd
00fdfe00fe00fffd
00fdfe00fe00fffd
00fdfe00fe00fffd
00fdfe00fe00fffd
00fdfe00fe00fffd
fe01fefdfeff02fc
fe01fefdfeff02fc
fe01fefdfeff02fc
fe01fefdfeff02fc
fe01fefdfeff02fc
fe01fefdfeff02fc
fe01fefdfeff02fc
fe01fefdfeff02fc
fdfefd01fdfffd02
fdfefd01fdfffd02
fdfefd01fdfffd02
fdfefd01fdfffd02
fdfefd01fdfffd02
fdfefd01fdfffd02
fdfefd01fdfffd02
fdfefd01fdfffd02
ff0000ff00fdfc04
ff0000ff00fdfc04
ff0000ff00fdfc04
ff0000ff00fdfc04
ff0000ff00fdfc04
ff0000ff00fdfc04
ff0000ff00fdfc04
ff0000ff00fdfc04
00ff0000fe01fd00
00ff0000fe01fd00
00ff0000fe01fd00
00ff0000fe01fd00
00ff0000fe01fd00
00ff0000fe01fd00
00ff0000fe01fd00
00ff0000fe01fd00
01ffff01feffff03
01ffff01feffff03
01ffff01feffff03
01ffff01feffff03
01ffff01feffff03
01ffff01feffff03
01ffff01feffff03
01ffff01feffff03
02fb01fc03ff0200
02fb01fc03ff0200
02fb01fc03ff0200
02fb01fc03ff0200
02fb01fc03ff0200
02fb01fc03ff0200
02fb01fc03ff0200
02fb01fc03ff0200
01fefdfefefefd05
01fefdfefefefd05
01fefdfefefefd05
01fefdfefefefd05
01fefdfefefefd05
01fefdfefefefd05
01fefdfefefefd05
01fefdfefefefd05
fe030001feff02ff
fe030001feff02ff
fe030001feff02ff
fe030001feff02ff
fe030001feff02ff
fe030001feff02ff
fe030001feff02ff
fe030001feff02ff
0101ff00000203fe
0101ff00000203fe
0101ff00000203fe
0101ff00000203fe
0101ff00000203fe
0101ff00000203fe
0101ff00000203fe
0101ff00000203fe
fb02fffefffe0101
fb02fffefffe0101
fb02fffefffe0101
fb02fffefffe0101
fb02fffefffe0101
fb02fffefffe0101
fb02fffefffe0101
fb02fffefffe0101
fffe00fe0301ffff
fffe00fe0301ffff
fffe00fe0301ffff
fffe00fe0301ffff
fffe00fe0301ffff
fffe00fe0301ffff
fffe00fe0301ffff
fffe00fe0301ffff
0604fffd02fc0502
0604fffd02fc0502
0604fffd02fc0502
0604fffd02fc0502
0604fffd02fc0502
0604fffd02fc0502
0604fffd02fc0502
0604fffd02fc0502
fc060004fa010600
fc060004fa010600
fc060004fa010600
fc060004fa010600
fc060004fa010600
fc060004fa010600
fc060004fa010600
fc060004fa010600
04fdfcfc030801fa
04fdfcfc030801fa
04fdfcfc030801fa
04fdfcfc030801fa
04fdfcfc030801fa
04fdfcfc030801fa
04fdfcfc030801fa
04fdfcfc030801fa
fdfc05feffffff07
fdfc05feffffff07
fdfc05feffffff07
fdfc05feffffff07
fdfc05feffffff07
fdfc05feffffff07
fdfc05feffffff07
fdfc05feffffff07
fa05fff900f904fd
fa05fff900f904fd
fa05fff900f904fd
fa05fff900f904fd
fa05fff900f904fd
fa05fff900f904fd
fa05fff900f904fd
fa05fff900f904fd
0401fd07fc02fb01
0401fd07fc02fb01
0401fd07fc02fb01
0401fd07fc02fb01
0401fd07fc02fb01
0401fd07fc02fb01
0401fd07fc02fb01
0401fd07fc02fb01
fcfaff0206020004
fcfaff0206020004
fcfaff0206020004
fcfaff0206020004
fcfaff0206020004
fcfaff0206020004
fcfaff0206020004
fcfaff0206020004
ff04fe0502070500
ff04fe0502070500
ff04fe0502070500
ff04fe0502070500
ff04fe0502070500
ff04fe0502070500
ff04fe0502070500
ff04fe0502070500
fefffb0a04fb0600
fefffb0a04fb0600
fefffb0a04fb0600
fefffb0a04fb0600
fefffb0a04fb0600
fefffb0a04fb0600
fefffb0a04fb0600
fefffb0a04fb0600
fcfffbfffef9fdff
fcfffbfffef9fdff
fcfffbfffef9fdff
fcfffbfffef9fdff
fcfffbfffef9fdff
fcfffbfffef9fdff
fcfffbfffef9fdff
fcfffbfffef9fdff
fc04fe000305fcf9
fc04fe000305fcf9
fc04fe000305fcf9
fc04fe000305fcf9
fc04fe000305fcf9
fc04fe000305fcf9
fc04fe000305fcf9
fc04fe000305fcf9
000306040105fa07
000306040105fa07
000306040105fa07
000306040105fa07
000306040105fa07
000306040105fa07
000306040105fa07
000306040105fa07
fbfcfa070705fbfb
fbfcfa070705fbfb
fbfcfa070705fbfb
fbfcfa070705fbfb
fbfcfa070705fbfb
fbfcfa070705fbfb
fbfcfa070705fbfb
fbfcfa070705fbfb
0606050100fcfb03
0606050100fcfb03
0606050100fcfb03
0606050100fcfb03
0606050100fcfb03
0606050100fcfb03
0606050100fcfb03
0606050100fcfb03
fbfd00fa0205faf9
fbfd00fa0205faf9
fbfd00fa0205faf9
fbfd00fa0205faf9
fbfd00fa0205faf9
fbfd00fa0205faf9
fbfd00fa0205faf9
fbfd00fa0205faf9
06fcfbff060003fe
06fcfbff060003fe
06fcfbff060003fe
06fcfbff060003fe
06fcfbff060003fe
06fcfbff060003fe
06fcfbff060003fe
06fcfbff060003fe
fe030bfe080105f9
fe030bfe080105f9
fe030bfe080105f9
fe030bfe080105f9
fe030bfe080105f9
fe030bfe080105f9
fe030bfe080105f9
fe030bfe080105f9
f7faf700ff0400f8
f7faf700ff0400f8
f7faf700ff0400f8
f7faf700ff0400f8
f7faf700ff0400f8
f7faf700ff0400f8
f7faf700ff0400f8
f7faf700ff0400f8
04f8f602fb0b03fd
04f8f602fb0b03fd
04f8f602fb0b03fd
04f8f602fb0b03fd
04f8f602fb0b03fd
04f8f602fb0b03fd
04f8f602fb0b03fd
04f8f602fb0b03fd
000201fffe0103fa
000201fffe0103fa
000201fffe0103fa
000201fffe0103fa
000201fffe0103fa
000201fffe0103fa
000201fffe0103fa
000201fffe0103fa
06fe04fa020aff02
06fe04fa020aff02
06fe04fa020aff02
06fe04fa020aff02
06fe04fa020aff02
06fe04fa020aff02
06fe04fa020aff02
06fe04fa020aff02
02fbfe07fefdfd0b
02fbfe07fefdfd0b
02fbfe07fefdfd0b
02fbfe07fefdfd0b
02fbfe07fefdfd0b
02fbfe07fefdfd0b
02fbfe07fefdfd0b
02fbfe07fefdfd0b
fe00060808fd01fd
fe00060808fd01fd
fe00060808fd01fd
fe00060808fd01fd
fe00060808fd01fd
fe00060808fd01fd
fe00060808fd01fd
fe00060808fd01fd
04f7fcff040c0102
04f7fcff040c0102
04f7fcff040c0102
04f7fcff040c0102
04f7fcff040c0102
04f7fcff040c0102
04f7fcff040c0102
04f7fcff040c0102
070bfd0cfef8fa02
070bfd0cfef8fa02
070bfd0cfef8fa02
070bfd0cfef8fa02
070bfd0cfef8fa02
070bfd0cfef8fa02
070bfd0cfef8fa02
070bfd0cfef8fa02
f7fcfffb0406fefd
f7fcfffb0406fefd
f7fcfffb0406fefd
f7fcfffb0406fefd
f7fcfffb0406fefd
f7fcfffb0406fefd
f7fcfffb0406fefd
f7fcfffb0406fefd
0c0dff040300f707
0c0dff040300f707
0c0dff040300f707
0c0dff040300f707
0c0dff040300f707
0c0dff040300f707
0c0dff040300f707
0c0dff040300f707
0cfffbff02f80800
0cfffbff02f80800
0cfffbff02f80800
0cfffbff02f80800
0cfffbff02f80800
0cfffbff02f80800
0cfffbff02f80800
0cfffbff02f80800
fffefa02fff80501
fffefa02fff80501
fffefa02fff80501
fffefa02fff80501
fffefa02fff80501
fffefa02fff80501
fffefa02fff80501
fffefa02fff80501
0109fb00000104f8
0109fb00000104f8
0109fb00000104f8
0109fb00000104f8
0109fb00000104f8
0109fb00000104f8
0109fb00000104f8
0109fb00000104f8
0002f7fd03fb07fa
0002f7fd03fb07fa
0002f7fd03fb07fa
0002f7fd03fb07fa
0002f7fd03fb07fa
0002f7fd03fb07fa
0002f7fd03fb07fa
0002f7fd03fb07fa
f800010c080507fb
f800010c080507fb
f800010c080507fb
f800010c080507fb
f800010c080507fb
f800010c080507fb
f800010c080507fb
f800010c080507fb
00000001fe00ff01
00000001fe00ff01
00000001fe00ff01
00000001fe00ff01
00000001fe00ff01
00000001fe00ff01
00000001fe00ff01
00000001fe00ff01
00010000ff0001fe
00010000ff0001fe
00010000ff0001fe
00010000ff0001fe
00010000ff0001fe
00010000ff0001fe
00010000ff0001fe
00010000ff0001fe
000100000000ff01
000100000000ff01
000100000000ff01
000100000000ff01
000100000000ff01
000100000000ff01
000100000000ff01
000100000000ff01
0000ffff000000ff
0000ffff000000ff
0000ffff000000ff
0000ffff000000ff
0000ffff000000ff
0000ffff000000ff
0000ffff000000ff
0000ffff000000ff
00ff020000ff0001
00ff020000ff0001
00ff020000ff0001
00ff020000ff0001
00ff020000ff0001
00ff020000ff0001
00ff020000ff0001
00ff020000ff0001
01ffff0000000000
01ffff0000000000
01ffff0000000000
01ffff0000000000
01ffff0000000000
01ffff0000000000
01ffff0000000000
01ffff0000000000
000100ffff01ff00
000100ffff01ff00
000100ffff01ff00
000100ffff01ff00
000100ffff01ff00
000100ffff01ff00
000100ffff01ff00
000100ffff01ff00
ff00000000ffff00
ff00000000ffff00
ff00000000ffff00
ff00000000ffff00
ff00000000ffff00
ff00000000ffff00
ff00000000ffff00
ff00000000ffff00
0000000002000101
0000000002000101
0000000002000101
0000000002000101
0000000002000101
0000000002000101
0000000002000101
0000000002000101
0001000200ff0000
0001000200ff0000
0001000200ff0000
0001000200ff0000
0001000200ff0000
0001000200ff0000
0001000200ff0000
0001000200ff0000
00010000fffeff00
00010000fffeff00
00010000fffeff00
00010000fffeff00
00010000fffeff00
00010000fffeff00
00010000fffeff00
00010000fffeff00
fe000100ffffff01
fe000100ffffff01
fe000100ffffff01
fe000100ffffff01
fe000100ffffff01
fe000100ffffff01
fe000100ffffff01
fe000100ffffff01
00ff00000001fe00
00ff00000001fe00
00ff00000001fe00
00ff00000001fe00
00ff00000001fe00
00ff00000001fe00
00ff00000001fe00
00ff00000001fe00
fe0000ff00feff00
fe0000ff00feff00
fe0000ff00feff00
fe0000ff00feff00
fe0000ff00feff00
fe0000ff00feff00
fe0000ff00feff00
fe0000ff00feff00
00000100ff020000
00000100ff020000
00000100ff020000
00000100ff020000
00000100ff020000
00000100ff020000
00000100ff020000
00000100ff020000
ff01feff00fffeff
ff01feff00fffeff
ff01feff00fffeff
ff01feff00fffeff
ff01feff00fffeff
ff01feff00fffeff
ff01feff00fffeff
ff01feff00fffeff
faf9fe0c01030407
faf9fe0c01030407
faf9fe0c01030407
faf9fe0c01030407
faf9fe0c01030407
faf9fe0c01030407
faf9fe0c01030407
faf9fe0c01030407
02fbfcfdfa000407
02fbfcfdfa000407
02fbfcfdfa000407
02fbfcfdfa000407
02fbfcfdfa000407
02fbfcfdfa000407
02fbfcfdfa000407
02fbfcfdfa000407
feff030409fcfb04
feff030409fcfb04
feff030409fcfb04
feff030409fcfb04
feff030409fcfb04
feff030409fcfb04
feff030409fcfb04
feff030409fcfb04
fa04ff02f9fd0afe
fa04ff02f9fd0afe
fa04ff02f9fd0afe
fa04ff02f9fd0afe
fa04ff02f9fd0afe
fa04ff02f9fd0afe
fa04ff02f9fd0afe
fa04ff02f9fd0afe
0401f6fd020303fe
0401f6fd020303fe
0401f6fd020303fe
0401f6fd020303fe
0401f6fd020303fe
0401f6fd020303fe
0401f6fd020303fe
0401f6fd020303fe
ff0704fd0a02fcfc
ff0704fd0a02fcfc
ff0704fd0a02fcfc
ff0704fd0a02fcfc
ff0704fd0a02fcfc
ff0704fd0a02fcfc
ff0704fd0a02fcfc
ff0704fd0a02fcfc
fd0107070100fa03
fd0107070100fa03
fd0107070100fa03
fd0107070100fa03
fd0107070100fa03
fd0107070100fa03
fd0107070100fa03
fd0107070100fa03
00ff06f9fa060505
00ff06f9fa060505
00ff06f9fa060505
00ff06f9fa060505
00ff06f9fa060505
00ff06f9fa060505
00ff06f9fa060505
00ff06f9fa060505
02fcfafa0705fcfc
02fcfafa0705fcfc
02fcfafa0705fcfc
02fcfafa0705fcfc
02fcfafa0705fcfc
02fcfafa0705fcfc
02fcfafa0705fcfc
02fcfafa0705fcfc
0005050906fc0603
0005050906fc0603
0005050906fc0603
0005050906fc0603
0005050906fc0603
0005050906fc0603
0005050906fc0603
0005050906fc0603
0604060901fbfdfe
0604060901fbfdfe
0604060901fbfdfe
0604060901fbfdfe
0604060901fbfdfe
0604060901fbfdfe
0604060901fbfdfe
0604060901fbfdfe
fafafaf604fe0106
fafafaf604fe0106
fafafaf604fe0106
fafafaf604fe0106
fafafaf604fe0106
fafafaf604fe0106
fafafaf604fe0106
fafafaf604fe0106
08fbfd04fefa0303
08fbfd04fefa0303
08fbfd04fefa0303
08fbfd04fefa0303
08fbfd04fefa0303
08fbfd04fefa0303
08fbfd04fefa0303
08fbfd04fefa0303
fbfff90104fbf903
fbfff90104fbf903
fbfff90104fbf903
fbfff90104fbf903
fbfff90104fbf903
fbfff90104fbf903
fbfff90104fbf903
fbfff90104fbf903
f807fcfd08fe07fc
f807fcfd08fe07fc
f807fcfd08fe07fc
f807fcfd08fe07fc
f807fcfd08fe07fc
f807fcfd08fe07fc
f807fcfd08fe07fc
f807fcfd08fe07fc
04fa0702060700fd
04fa0702060700fd
04fa0702060700fd
04fa0702060700fd
04fa0702060700fd
04fa0702060700fd
04fa0702060700fd
04fa0702060700fd
fb09fe0dfc040100
fb09fe0dfc040100
fb09fe0dfc040100
fb09fe0dfc040100
fb09fe0dfc040100
fb09fe0dfc040100
fb09fe0dfc040100
fb09fe0dfc040100
00fffb02fc0309fb
00fffb02fc0309fb
00fffb02fc0309fb
00fffb02fc0309fb
00fffb02fc0309fb
00fffb02fc0309fb
00fffb02fc0309fb
00fffb02fc0309fb
08fd010500f80103
08fd010500f80103
08fd010500f80103
08fd010500f80103
08fd010500f80103
08fd010500f80103
08fd010500f80103
08fd010500f80103
00ff01fdfc03000c
00ff01fdfc03000c
00ff01fdfc03000c
00ff01fdfc03000c
00ff01fdfc03000c
00ff01fdfc03000c
00ff01fdfc03000c
00ff01fdfc03000c
00020608fbfaffff
00020608fbfaffff
00020608fbfaffff
00020608fbfaffff
00020608fbfaffff
00020608fbfaffff
00020608fbfaffff
00020608fbfaffff
0103ff00020002fb
0103ff00020002fb
0103ff00020002fb
0103ff00020002fb
0103ff00020002fb
0103ff00020002fb
0103ff00020002fb
0103ff00020002fb
fc00fdfd00020405
fc00fdfd00020405
fc00fdfd00020405
fc00fdfd00020405
fc00fdfd00020405
fc00fdfd00020405
fc00fdfd00020405
fc00fdfd00020405
010c0107fe0501fc
010c0107fe0501fc
010c0107fe0501fc
010c0107fe0501fc
010c0107fe0501fc
010c0107fe0501fc
010c0107fe0501fc
010c0107fe0501fc
f803fb060305fd00
f803fb060305fd00
f803fb060305fd00
f803fb060305fd00
f803fb060305fd00
f803fb060305fd00
f803fb060305fd00
f803fb060305fd00
06fd0102fa0a0207
06fd0102fa0a0207
06fd0102fa0a0207
06fd0102fa0a0207
06fd0102fa0a0207
06fd0102fa0a0207
06fd0102fa0a0207
06fd0102fa0a0207
01040a07ff03fd0d
01040a07ff03fd0d
01040a07ff03fd0d
01040a07ff03fd0d
01040a07ff03fd0d
01040a07ff03fd0d
01040a07ff03fd0d
01040a07ff03fd0d
fd030004fcfb00ff
fd030004fcfb00ff
fd030004fcfb00ff
fd030004fcfb00ff
fd030004fcfb00ff
fd030004fcfb00ff
fd030004fcfb00ff
fd030004fcfb00ff
fb05f7fdfd07fb00
fb05f7fdfd07fb00
fb05f7fdfd07fb00
fb05f7fdfd07fb00
fb05f7fdfd07fb00
fb05f7fdfd07fb00
fb05f7fdfd07fb00
fb05f7fdfd07fb00
03ff040909f90cfb
03ff040909f90cfb
03ff040909f90cfb
03ff040909f90cfb
03ff040909f90cfb
03ff040909f90cfb
03ff040909f90cfb
03ff040909f90cfb
f101fbfff805fd00
f101fbfff805fd00
f101fbfff805fd00
f101fbfff805fd00
f101fbfff805fd00
f101fbfff805fd00
f101fbfff805fd00
f101fbfff805fd00
01f6fe0801fefcfd
01f6fe0801fefcfd
01f6fe0801fefcfd
01f6fe0801fefcfd
01f6fe0801fefcfd
01f6fe0801fefcfd
01f6fe0801fefcfd
01f6fe0801fefcfd
fdfe0000ff00ff00
fdfe0000ff00ff00
fdfe0000ff00ff00
fdfe0000ff00ff00
fdfe0000ff00ff00
fdfe0000ff00ff00
fdfe0000ff00ff00
fdfe0000ff00ff00
00ff010101fe00fd
00ff010101fe00fd
00ff010101fe00fd
00ff010101fe00fd
00ff010101fe00fd
00ff010101fe00fd
00ff010101fe00fd
00ff010101fe00fd
02ffff000201ff02
02ffff000201ff02
02ffff000201ff02
02ffff000201ff02
02ffff000201ff02
02ffff000201ff02
02ffff000201ff02
02ffff000201ff02
000001000001fe01
000001000001fe01
000001000001fe01
000001000001fe01
000001000001fe01
000001000001fe01
000001000001fe01
000001000001fe01
0000ff01fe01ff00
0000ff01fe01ff00
0000ff01fe01ff00
0000ff01fe01ff00
0000ff01fe01ff00
0000ff01fe01ff00
0000ff01fe01ff00
0000ff01fe01ff00
ffffff0001020201
ffffff0001020201
ffffff0001020201
ffffff0001020201
ffffff0001020201
ffffff0001020201
ffffff0001020201
ffffff0001020201
020102010101ff01
020102010101ff01
020102010101ff01
020102010101ff01
020102010101ff01
020102010101ff01
020102010101ff01
020102010101ff01
0101020200ff0000
0101020200ff0000
0101020200ff0000
0101020200ff0000
0101020200ff0000
0101020200ff0000
0101020200ff0000
0101020200ff0000
00ff020000010301
00ff020000010301
00ff020000010301
00ff020000010301
00ff020000010301
00ff020000010301
00ff020000010301
00ff020000010301
00feff01000001fd
00feff01000001fd
00feff01000001fd
00feff01000001fd
00feff01000001fd
00feff01000001fd
00feff01000001fd
00feff01000001fd
01ff00fffd0100ff
01ff00fffd0100ff
01ff00fffd0100ff
01ff00fffd0100ff
01ff00fffd0100ff
01ff00fffd0100ff
01ff00fffd0100ff
01ff00fffd0100ff
ff00fc000201fe01
ff00fc000201fe01
ff00fc000201fe01
ff00fc000201fe01
ff00fc000201fe01
ff00fc000201fe01
ff00fc000201fe01
ff00fc000201fe01
0100fdfe01ff0000
0100fdfe01ff0000
0100fdfe01ff0000
0100fdfe01ff0000
0100fdfe01ff0000
0100fdfe01ff0000
0100fdfe01ff0000
0100fdfe01ff0000
01000000000100fe
01000000000100fe
01000000000100fe
01000000000100fe
01000000000100fe
01000000000100fe
01000000000100fe
01000000000100fe
01ff00fe00fefeff
01ff00fe00fefeff
01ff00fe00fefeff
01ff00fe00fefeff
01ff00fe00fefeff
01ff00fe00fefeff
01ff00fe00fefeff
01ff00fe00fefeff
01ff000000ff0101
01ff000000ff0101
01ff000000ff0101
01ff000000ff0101
01ff000000ff0101
01ff000000ff0101
01ff000000ff0101
01ff000000ff0101
fe02fbff02020302
fe02fbff02020302
fe02fbff02020302
fe02fbff02020302
fe02fbff02020302
fe02fbff02020302
fe02fbff02020302
fe02fbff02020302
fefffd00fdfefe04
fefffd00fdfefe04
fefffd00fdfefe04
fefffd00fdfefe04
fefffd00fdfefe04
fefffd00fdfefe04
fefffd00fdfefe04
fefffd00fdfefe04
0200fcfffe02fb01
0200fcfffe02fb01
0200fcfffe02fb01
0200fcfffe02fb01
0200fcfffe02fb01
0200fcfffe02fb01
0200fcfffe02fb01
0200fcfffe02fb01
fb00fafbfe00fdfc
fb00fafbfe00fdfc
fb00fafbfe00fdfc
fb00fafbfe00fdfc
fb00fafbfe00fdfc
fb00fafbfe00fdfc
fb00fafbfe00fdfc
fb00fafbfe00fdfc
fc0404fefc0402fd
fc0404fefc0402fd
fc0404fefc0402fd
fc0404fefc0402fd
fc0404fefc0402fd
fc0404fefc0402fd
fc0404fefc0402fd
fc0404fefc0402fd
04000201fffc0300
04000201fffc0300
04000201fffc0300
04000201fffc0300
04000201fffc0300
04000201fffc0300
04000201fffc0300
04000201fffc0300
fefdfefbfefc02fa
fefdfefbfefc02fa
fefdfefbfefc02fa
fefdfefbfefc02fa
fefdfefbfefc02fa
fefdfefbfefc02fa
fefdfefbfefc02fa
fefdfefbfefc02fa
0302fefffc0303ff
0302fefffc0303ff
0302fefffc0303ff
0302fefffc0303ff
0302fefffc0303ff
0302fefffc0303ff
0302fefffc0303ff
0302fefffc0303ff
fd0002fcfe03fc01
fd0002fcfe03fc01
fd0002fcfe03fc01
fd0002fcfe03fc01
fd0002fcfe03fc01
fd0002fcfe03fc01
fd0002fcfe03fc01
fd0002fcfe03fc01
05fe01fcfefe04fc
05fe01fcfefe04fc
05fe01fcfefe04fc
05fe01fcfefe04fc
05fe01fcfefe04fc
05fe01fcfefe04fc
05fe01fcfefe04fc
05fe01fcfefe04fc
03fefefbfe020303
03fefefbfe020303
03fefefbfe020303
03fefefbfe020303
03fefefbfe020303
03fefefbfe020303
03fefefbfe020303
03fefefbfe020303
fd03fd0202fefb03
fd03fd0202fefb03
fd03fd0202fefb03
fd03fd0202fefb03
fd03fd0202fefb03
fd03fd0202fefb03
fd03fd0202fefb03
fd03fd0202fefb03
01fcfc02fbfcff00
01fcfc02fbfcff00
01fcfc02fbfcff00
01fcfc02fbfcff00
01fcfc02fbfcff00
01fcfc02fbfcff00
01fcfc02fbfcff00
01fcfc02fbfcff00
fc03ff04010302fe
fc03ff04010302fe
fc03ff04010302fe
fc03ff04010302fe
fc03ff04010302fe
fc03ff04010302fe
fc03ff04010302fe
fc03ff04010302fe
04fcfbff03fc02fc
04fcfbff03fc02fc
04fcfbff03fc02fc
04fcfbff03fc02fc
04fcfbff03fc02fc
04fcfbff03fc02fc
04fcfbff03fc02fc
04fcfbff03fc02fc
fcfd0204fe04fcfe
fcfd0204fe04fcfe
fcfd0204fe04fcfe
fcfd0204fe04fcfe
fcfd0204fe04fcfe
fcfd0204fe04fcfe
fcfd0204fe04fcfe
fcfd0204fe04fcfe
02f501ff0201f805
02f501ff0201f805
02f501ff0201f805
02f501ff0201f805
02f501ff0201f805
02f501ff0201f805
02f501ff0201f805
02f501ff0201f805
fa030701ff01f5ff
fa030701ff01f5ff
fa030701ff01f5ff
fa030701ff01f5ff
fa030701ff01f5ff
fa030701ff01f5ff
fa030701ff01f5ff
fa030701ff01f5ff
040001f700f903f9
040001f700f903f9
040001f700f903f9
040001f700f903f9
040001f700f903f9
040001f700f903f9
040001f700f903f9
040001f700f903f9
fffffd0afefefdfa
fffffd0afefefdfa
fffffd0afefefdfa
fffffd0afefefdfa
fffffd0afefefdfa
fffffd0afefefdfa
fffffd0afefefdfa
fffffd0afefefdfa
fc0209060a0a0001
fc0209060a0a0001
fc0209060a0a0001
fc0209060a0a0001
fc0209060a0a0001
fc0209060a0a0001
fc0209060a0a0001
fc0209060a0a0001
06020b00f505fe00
06020b00f505fe00
06020b00f505fe00
06020b00f505fe00
06020b00f505fe00
06020b00f505fe00
06020b00f505fe00
06020b00f505fe00
09fb0203fcfc0801
09fb0203fcfc0801
09fb0203fcfc0801
09fb0203fcfc0801
09fb0203fcfc0801
09fb0203fcfc0801
09fb0203fcfc0801
09fb0203fcfc0801
0300f7fbf701ff10
0300f7fbf701ff10
0300f7fbf701ff10
0300f7fbf701ff10
0300f7fbf701ff10
0300f7fbf701ff10
0300f7fbf701ff10
0300f7fbf701ff10
fd03fdfafefbfbfd
fd03fdfafefbfbfd
fd03fdfafefbfbfd
fd03fdfafefbfbfd
fd03fdfafefbfbfd
fd03fdfafefbfbfd
fd03fdfafefbfbfd
fd03fdfafefbfbfd
0500f806fcfe0001
0500f806fcfe0001
0500f806fcfe0001
0500f806fcfe0001
0500f806fcfe0001
0500f806fcfe0001
0500f806fcfe0001
0500f806fcfe0001
f4020002fdfd01fd
f4020002fdfd01fd
f4020002fdfd01fd
f4020002fdfd01fd
f4020002fdfd01fd
f4020002fdfd01fd
f4020002fdfd01fd
f4020002fdfd01fd
f8fb04f9f804fff9
f8fb04f9f804fff9
f8fb04f9f804fff9
f8fb04f9f804fff9
f8fb04f9f804fff9
f8fb04f9f804fff9
f8fb04f9f804fff9
f8fb04f9f804fff9
0006030b040cfffb
0006030b040cfffb
0006030b040cfffb
0006030b040cfffb
0006030b040cfffb
0006030b040cfffb
0006030b040cfffb
0006030b040cfffb
01fefb02f5f6fe06
01fefb02f5f6fe06
01fefb02f5f6fe06
01fefb02f5f6fe06
01fefb02f5f6fe06
01fefb02f5f6fe06
01fefb02f5f6fe06
01fefb02f5f6fe06
f903fb02f9fd0700
f903fb02f9fd0700
f903fb02f9fd0700
f903fb02f9fd0700
f903fb02f9fd0700
f903fb02f9fd0700
f903fb02f9fd0700
f903fb02f9fd0700
fa0501fc0100ffff
fa0501fc0100ffff
fa0501fc0100ffff
fa0501fc0100ffff
fa0501fc0100ffff
fa0501fc0100ffff
fa0501fc0100ffff
fa0501fc0100ffff
0202ff0100fe0001
0202ff0100fe0001
0202ff0100fe0001
0202ff0100fe0001
0202ff0100fe0001
0202ff0100fe0001
0202ff0100fe0001
0202ff0100fe0001
ff01fe0000ff0001
ff01fe0000ff0001
ff01fe0000ff0001
ff01fe0000ff0001
ff01fe0000ff0001
ff01fe0000ff0001
ff01fe0000ff0001
ff01fe0000ff0001
ff000001000000ff
ff000001000000ff
ff000001000000ff
ff000001000000ff
ff000001000000ff
ff000001000000ff
ff000001000000ff
ff000001000000ff
ff0100ff00ffff00
ff0100ff00ffff00
ff0100ff00ffff00
ff0100ff00ffff00
ff0100ff00ffff00
ff0100ff00ffff00
ff0100ff00ffff00
ff0100ff00ffff00
0002010001ff01ff
0002010001ff01ff
0002010001ff01ff
0002010001ff01ff
0002010001ff01ff
0002010001ff01ff
0002010001ff01ff
0002010001ff01ff
01fffeffff0200ff
01fffeffff0200ff
01fffeffff0200ff
01fffeffff0200ff
01fffeffff0200ff
01fffeffff0200ff
01fffeffff0200ff
01fffeffff0200ff
fe00ff0101ffff01
fe00ff0101ffff01
fe00ff0101ffff01
fe00ff0101ffff01
fe00ff0101ffff01
fe00ff0101ffff01
fe00ff0101ffff01
fe00ff0101ffff01
00ff00ff01010101
00ff00ff01010101
00ff00ff01010101
00ff00ff01010101
00ff00ff01010101
00ff00ff01010101
00ff00ff01010101
00ff00ff01010101
fffeff0100ff01ff
fffeff0100ff01ff
fffeff0100ff01ff
fffeff0100ff01ff
fffeff0100ff01ff
fffeff0100ff01ff
fffeff0100ff01ff
fffeff0100ff01ff
020100000100feff
020100000100feff
020100000100feff
020100000100feff
020100000100feff
020100000100feff
020100000100feff
020100000100feff
000100ff000002ff
000100ff000002ff
000100ff000002ff
000100ff000002ff
000100ff000002ff
000100ff000002ff
000100ff000002ff
000100ff000002ff
0001fffffefdfffe
0001fffffefdfffe
0001fffffefdfffe
0001fffffefdfffe
0001fffffefdfffe
0001fffffefdfffe
0001fffffefdfffe
0001fffffefdfffe
0100fe010100ff01
0100fe010100ff01
0100fe010100ff01
0100fe010100ff01
0100fe010100ff01
0100fe010100ff01
0100fe010100ff01
0100fe010100ff01
010101ff000200ff
010101ff000200ff
010101ff000200ff
010101ff000200ff
010101ff000200ff
010101ff000200ff
010101ff000200ff
010101ff000200ff
ffff0100ff000101
ffff0100ff000101
ffff0100ff000101
ffff0100ff000101
ffff0100ff000101
ffff0100ff000101
ffff0100ff000101
ffff0100ff000101
fe01fefc00fe0000
fe01fefc00fe0000
fe01fefc00fe0000
fe01fefc00fe0000
fe01fefc00fe0000
fe01fefc00fe0000
fe01fefc00fe0000
fe01fefc00fe0000
0900f905f8050307
0900f905f8050307
0900f905f8050307
0900f905f8050307
0900f905f8050307
0900f905f8050307
0900f905f8050307
0900f905f8050307
09f90403fafa09fc
09f90403fafa09fc
09f90403fafa09fc
09f90403fafa09fc
09f90403fafa09fc
09f90403fafa09fc
09f90403fafa09fc
09f90403fafa09fc
f7fe07fbfa0507fe
f7fe07fbfa0507fe
f7fe07fbfa0507fe
f7fe07fbfa0507fe
f7fe07fbfa0507fe
f7fe07fbfa0507fe
f7fe07fbfa0507fe
f7fe07fbfa0507fe
fd08ff01fefcf907
fd08ff01fefcf907
fd08ff01fefcf907
fd08ff01fefcf907
fd08ff01fefcf907
fd08ff01fefcf907
fd08ff01fefcf907
fd08ff01fefcf907
0704fbfbfb0207fb
0704fbfbfb0207fb
0704fbfbfb0207fb
0704fbfbfb0207fb
0704fbfbfb0207fb
0704fbfbfb0207fb
0704fbfbfb0207fb
0704fbfbfb0207fb
fa0502fa06fbff01
fa0502fa06fbff01
fa0502fa06fbff01
fa0502fa06fbff01
fa0502fa06fbff01
fa0502fa06fbff01
fa0502fa06fbff01
fa0502fa06fbff01
fb05fa04fbfd0600
fb05fa04fbfd0600
fb05fa04fbfd0600
fb05fa04fbfd0600
fb05fa04fbfd0600
fb05fa04fbfd0600
fb05fa04fbfd0600
fb05fa04fbfd0600
0a01060806fb0207
0a01060806fb0207
0a01060806fb0207
0a01060806fb0207
0a01060806fb0207
0a01060806fb0207
0a01060806fb0207
0a01060806fb0207
ff07fd0600fa07f9
ff07fd0600fa07f9
ff07fd0600fa07f9
ff07fd0600fa07f9
ff07fd0600fa07f9
ff07fd0600fa07f9
ff07fd0600fa07f9
ff07fd0600fa07f9
fcfefa06fbfc0802
fcfefa06fbfc0802
fcfefa06fbfc0802
fcfefa06fbfc0802
fcfefa06fbfc0802
fcfefa06fbfc0802
fcfefa06fbfc0802
fcfefa06fbfc0802
07fefd0600fb05fc
07fefd0600fb05fc
07fefd0600fb05fc
07fefd0600fb05fc
07fefd0600fb05fc
07fefd0600fb05fc
07fefd0600fb05fc
07fefd0600fb05fc
0505fc0704fb0707
0505fc0704fb0707
0505fc0704fb0707
0505fc0704fb0707
0505fc0704fb0707
0505fc0704fb0707
0505fc0704fb0707
0505fc0704fb0707
fa09fc01ff020607
fa09fc01ff020607
fa09fc01ff020607
fa09fc01ff020607
fa09fc01ff020607
fa09fc01ff020607
fa09fc01ff020607
fa09fc01ff020607
fbfa010603ff04f9
fbfa010603ff04f9
fbfa010603ff04f9
fbfa010603ff04f9
fbfa010603ff04f9
fbfa010603ff04f9
fbfa010603ff04f9
fbfa010603ff04f9
fc050006fa060604
fc050006fa060604
fc050006fa060604
fc050006fa060604
fc050006fa060604
fc050006fa060604
fc050006fa060604
fc050006fa060604
fd0402000602fe07
fd0402000602fe07
fd0402000602fe07
fd0402000602fe07
fd0402000602fe07
fd0402000602fe07
fd0402000602fe07
fd0402000602fe07
00ff08f50403ff07
00ff08f50403ff07
00ff08f50403ff07
00ff08f50403ff07
00ff08f50403ff07
00ff08f50403ff07
00ff08f50403ff07
00ff08f50403ff07
0405f8f8fbfa05fc
0405f8f8fbfa05fc
0405f8f8fbfa05fc
0405f8f8fbfa05fc
0405f8f8fbfa05fc
0405f8f8fbfa05fc
0405f8f8fbfa05fc
0405f8f8fbfa05fc
040009f6010201f9
040009f6010201f9
040009f6010201f9
040009f6010201f9
040009f6010201f9
040009f6010201f9
040009f6010201f9
040009f6010201f9
f809fe0105fc0101
f809fe0105fc0101
f809fe0105fc0101
f809fe0105fc0101
f809fe0105fc0101
f809fe0105fc0101
f809fe0105fc0101
f809fe0105fc0101
020908f60300fe02
020908f60300fe02
020908f60300fe02
020908f60300fe02
020908f60300fe02
020908f60300fe02
020908f60300fe02
020908f60300fe02
04040604fc02fffa
04040604fc02fffa
04040604fc02fffa
04040604fc02fffa
04040604fc02fffa
04040604fc02fffa
04040604fc02fffa
04040604fc02fffa
fcfb00fa03f4fd01
fcfb00fa03f4fd01
fcfb00fa03f4fd01
fcfb00fa03f4fd01
fcfb00fa03f4fd01
fcfb00fa03f4fd01
fcfb00fa03f4fd01
fcfb00fa03f4fd01
07fcfe02fafd0706
07fcfe02fafd0706
07fcfe02fafd0706
07fcfe02fafd0706
07fcfe02fafd0706
07fcfe02fafd0706
07fcfe02fafd0706
07fcfe02fafd0706
fb08fafcf8ff0f09
fb08fafcf8ff0f09
fb08fafcf8ff0f09
fb08fafcf8ff0f09
fb08fafcf8ff0f09
fb08fafcf8ff0f09
fb08fafcf8ff0f09
fb08fafcf8ff0f09
f7f9f3f7fcfff8fc
f7f9f3f7fcfff8fc
f7f9f3f7fcfff8fc
f7f9f3f7fcfff8fc
f7f9f3f7fcfff8fc
f7f9f3f7fcfff8fc
f7f9f3f7fcfff8fc
f7f9f3f7fcfff8fc
f7fb0209f5fdf6fd
f7fb0209f5fdf6fd
f7fb0209f5fdf6fd
f7fb0209f5fdf6fd
f7fb0209f5fdf6fd
f7fb0209f5fdf6fd
f7fb0209f5fdf6fd
f7fb0209f5fdf6fd
f7fc0a09040201fb
f7fc0a09040201fb
f7fc0a09040201fb
f7fc0a09040201fb
f7fc0a09040201fb
f7fc0a09040201fb
f7fc0a09040201fb
f7fc0a09040201fb
03040807fdfbf807
03040807fdfbf807
03040807fdfbf807
03040807fdfbf807
03040807fdfbf807
03040807fdfbf807
03040807fdfbf807
03040807fdfbf807
fbf9fe03fa06fe08
fbf9fe03fa06fe08
fbf9fe03fa06fe08
fbf9fe03fa06fe08
fbf9fe03fa06fe08
fbf9fe03fa06fe08
fbf9fe03fa06fe08
fbf9fe03fa06fe08
07ff05000206fdf4
07ff05000206fdf4
07ff05000206fdf4
07ff05000206fdf4
07ff05000206fdf4
07ff05000206fdf4
07ff05000206fdf4
07ff05000206fdf4
01fbfb05f200f7fe
01fbfb05f200f7fe
01fbfb05f200f7fe
01fbfb05f200f7fe
01fbfb05f200f7fe
01fbfb05f200f7fe
01fbfb05f200f7fe
01fbfb05f200f7fe
ff00fffe0001fefe
ff00fffe0001fefe
ff00fffe0001fefe
ff00fffe0001fefe
ff00fffe0001fefe
ff00fffe0001fefe
ff00fffe0001fefe
ff00fffe0001fefe
0202ff01fe02ff00
0202ff01fe02ff00
0202ff01fe02ff00
0202ff01fe02ff00
0202ff01fe02ff00
0202ff01fe02ff00
0202ff01fe02ff00
0202ff01fe02ff00
ff01000000000001
ff01000000000001
ff01000000000001
ff01000000000001
ff01000000000001
ff01000000000001
ff01000000000001
ff01000000000001
ff0100fd01ff00fe
ff0100fd01ff00fe
ff0100fd01ff00fe
ff0100fd01ff00fe
ff0100fd01ff00fe
ff0100fd01ff00fe
ff0100fd01ff00fe
ff0100fd01ff00fe
ff00000200fe0100
ff00000200fe0100
ff00000200fe0100
ff00000200fe0100
ff00000200fe0100
ff00000200fe0100
ff00000200fe0100
ff00000200fe0100
00ff0000fd00ffff
00ff0000fd00ffff
00ff0000fd00ffff
00ff0000fd00ffff
00ff0000fd00ffff
00ff0000fd00ffff
00ff0000fd00ffff
00ff0000fd00ffff
ff010002ff020000
ff010002ff020000
ff010002ff020000
ff010002ff020000
ff010002ff020000
ff010002ff020000
ff010002ff020000
ff010002ff020000
00000100ff010101
00000100ff010101
00000100ff010101
00000100ff010101
00000100ff010101
00000100ff010101
00000100ff010101
00000100ff010101
ff00010100020100
ff00010100020100
ff00010100020100
ff00010100020100
ff00010100020100
ff00010100020100
ff00010100020100
ff00010100020100
01ffff01fefe0200
01ffff01fefe0200
01ffff01fefe0200
01ffff01fefe0200
01ffff01fefe0200
01ffff01fefe0200
01ffff01fefe0200
01ffff01fefe0200
0101000300ffff00
0101000300ffff00
0101000300ffff00
0101000300ffff00
0101000300ffff00
0101000300ffff00
0101000300ffff00
0101000300ffff00
0000000002010000
0000000002010000
0000000002010000
0000000002010000
0000000002010000
0000000002010000
0000000002010000
0000000002010000
ff01ff01ff01ff01
ff01ff01ff01ff01
ff01ff01ff01ff01
ff01ff01ff01ff01
ff01ff01ff01ff01
ff01ff01ff01ff01
ff01ff01ff01ff01
ff01ff01ff01ff01
0001fe01ff00ffff
0001fe01ff00ffff
0001fe01ff00ffff
0001fe01ff00ffff
0001fe01ff00ffff
0001fe01ff00ffff
0001fe01ff00ffff
0001fe01ff00ffff
01010000ffffffff
01010000ffffffff
01010000ffffffff
01010000ffffffff
01010000ffffffff
01010000ffffffff
01010000ffffffff
01010000ffffffff
fffe000102020002
fffe000102020002
fffe000102020002
fffe000102020002
fffe000102020002
fffe000102020002
fffe000102020002
fffe000102020002
06f905f9f9f904f9
faf9fc04f9fff804
05fd05fafbfafbfb
0503fa04fbfcf804
fa010705060205fa
0503fa00fb0304f8
fafa01fafafb0507
04fa04fcf904f8fc
fa0402fc0400fb05
fa05fa02fb05fafb
050705f704fdfafa
f9f9fbfb0304ff02
faf700fa05f9fb05
faf9040404fa0705
05faf9060507f902
050404f9fafa0505
f9fcfbf9fbfb03f9
f90005faf805fbfb
fa07fe04fb0007fa
050404fcf906fb04
fafaf90204f905fc
06fa0605f805fb05
04fe000605fc04f9
fb0604f9fd0604fa
faf9fafaf902f906
f901fdfe06f905ff
05fc05f7fafb06f9
fbfd050604fd0504
fa0506fe0403f803
050406fefa0403fa
04f9fb07040805f9
f9f80405f9040406
090907060707f9f9
fafafbfa09080408
08090a08fbfe080a
0808080808fe04fc
fafafff9f9080bf8
fa0808f90a08f907
fa0afafafafb09fa
04f908f9090807fa
ff0afbf90afa07f9
0805ff0708070709
fcf908f8080509fa
070bfc0100fa08f8
0706fc06fa04fb08
0108fa090a05080a
fa0806fb0907f909
fafbf909f909fcfa
0afcfb0209fafbfb
f9fbfafafafb0908
fafb0a0809f80807
0804fefbfbf9fd06
fa0a080906fafb03
f90908fb07fd080a
f909fbfbfafaf9fa
0afb09fb05fa0807
f90af806fe08fafc
0907fbfbfafb0809
00fc0700f9090806
08f8f8f9fa07fbf9
fbfafb0108f9fbfc
fb0afa08fdfbf9fc
f7fafb08fafdfc09
f9090b07fcfb0701
0201000001000000
0201000001000000
0201000001000000
0201000001000000
0201000001000000
0201000001000000
0201000001000000
0201000001000000
0000000001010100
0000000001010100
0000000001010100
0000000001010100
0000000001010100
0000000001010100
0000000001010100
0000000001010100
0100010101ff0100
0100010101ff0100
0100010101ff0100
0100010101ff0100
0100010101ff0100
0100010101ff0100
0100010101ff0100
0100010101ff0100
010100000001ff01
010100000001ff01
010100000001ff01
010100000001ff01
010100000001ff01
010100000001ff01
010100000001ff01
010100000001ff01
00000000010001ff
00000000010001ff
00000000010001ff
00000000010001ff
00000000010001ff
00000000010001ff
00000000010001ff
00000000010001ff
0000000100000000
0000000100000000
0000000100000000
0000000100000000
0000000100000000
0000000100000000
0000000100000000
0000000100000000
0000000000000000
0000000000000000
0000000000000000
0000000000000000
0000000000000000
0000000000000000
0000000000000000
0000000000000000
0000000000000100
0000000000000100
0000000000000100
0000000000000100
0000000000000100
0000000000000100
0000000000000100
0000000000000100
000001ffff010000
000001ffff010000
000001ffff010000
000001ffff010000
000001ffff010000
000001ffff010000
000001ffff010000
000001ffff010000
0000010001000100
0000010001000100
0000010001000100
0000010001000100
0000010001000100
0000010001000100
0000010001000100
0000010001000100
0100000100000100
0100000100000100
0100000100000100
0100000100000100
0100000100000100
0100000100000100
0100000100000100
0100000100000100
0100000001010000
0100000001010000
0100000001010000
0100000001010000
0100000001010000
0100000001010000
0100000001010000
0100000001010000
0000000000ff0101
0000000000ff0101
0000000000ff0101
0000000000ff0101
0000000000ff0101
0000000000ff0101
0000000000ff0101
0000000000ff0101
0000010000000000
0000010000000000
0000010000000000
0000010000000000
0000010000000000
0000010000000000
0000010000000000
0000010000000000
00000100ff00ff01
00000100ff00ff01
00000100ff00ff01
00000100ff00ff01
00000100ff00ff01
00000100ff00ff01
00000100ff00ff01
00000100ff00ff01
0000ff00000000ff
0000ff00000000ff
0000ff00000000ff
0000ff00000000ff
0000ff00000000ff
0000ff00000000ff
0000ff00000000ff
0000ff00000000ff
ff00000000ff00ff
ff00000000ff00ff
ff00000000ff00ff
ff00000000ff00ff
ff00000000ff00ff
ff00000000ff00ff
ff00000000ff00ff
ff00000000ff00ff
00010000ff000000
00010000ff000000
00010000ff000000
00010000ff000000
00010000ff000000
00010000ff000000
00010000ff000000
00010000ff000000
000001000000ffff
000001000000ffff
000001000000ffff
000001000000ffff
000001000000ffff
000001000000ffff
000001000000ffff
000001000000ffff
00010000ff000001
00010000ff000001
00010000ff000001
00010000ff000001
00010000ff000001
00010000ff000001
00010000ff000001
00010000ff000001
0000ff0000000100
0000ff0000000100
0000ff0000000100
0000ff0000000100
0000ff0000000100
0000ff0000000100
0000ff0000000100
0000ff0000000100
000000000100ff01
000000000100ff01
000000000100ff01
000000000100ff01
000000000100ff01
000000000100ff01
000000000100ff01
000000000100ff01
000100ff0100feff
000100ff0100feff
000100ff0100feff
000100ff0100feff
000100ff0100feff
000100ff0100feff
000100ff0100feff
000100ff0100feff
0100000000000000
0100000000000000
0100000000000000
0100000000000000
0100000000000000
0100000000000000
0100000000000000
0100000000000000
0000ff00ff000000
0000ff00ff000000
0000ff00ff000000
0000ff00ff000000
0000ff00ff000000
0000ff00ff000000
0000ff00ff000000
0000ff00ff000000
0000000001ff01ff
0000000001ff01ff
0000000001ff01ff
0000000001ff01ff
0000000001ff01ff
0000000001ff01ff
0000000001ff01ff
0000000001ff01ff
0001000100000000
0001000100000000
0001000100000000
0001000100000000
0001000100000000
0001000100000000
0001000100000000
0001000100000000
0000010001010001
0000010001010001
0000010001010001
0000010001010001
0000010001010001
0000010001010001
0000010001010001
0000010001010001
000100000000ff00
000100000000ff00
000100000000ff00
000100000000ff00
000100000000ff00
000100000000ff00
000100000000ff00
000100000000ff00
00010000000000fe
00010000000000fe
00010000000000fe
00010000000000fe
00010000000000fe
00010000000000fe
00010000000000fe
00010000000000fe
00ff000000000001
00ff000000000001
00ff000000000001
00ff000000000001
00ff000000000001
00ff000000000001
00ff000000000001
00ff000000000001
ff0100ff00000000
ff0100ff00000000
ff0100ff00000000
ff0100ff00000000
ff0100ff00000000
ff0100ff00000000
ff0100ff00000000
ff0100ff00000000
0305fcfe07fc06ff
0305fcfe07fc06ff
0305fcfe07fc06ff
0305fcfe07fc06ff
0305fcfe07fc06ff
0305fcfe07fc06ff
0305fcfe07fc06ff
0305fcfe07fc06ff
fcfd01ff0404fcff
fcfd01ff0404fcff
fcfd01ff0404fcff
fcfd01ff0404fcff
fcfd01ff0404fcff
fcfd01ff0404fcff
fcfd01ff0404fcff
fcfd01ff0404fcff
0207090501040409
0207090501040409
0207090501040409
0207090501040409
0207090501040409
0207090501040409
0207090501040409
0207090501040409
0b03f8fc040002fb
0b03f8fc040002fb
0b03f8fc040002fb
0b03f8fc040002fb
0b03f8fc040002fb
0b03f8fc040002fb
0b03f8fc040002fb
0b03f8fc040002fb
0800010309010c07
0800010309010c07
0800010309010c07
0800010309010c07
0800010309010c07
0800010309010c07
0800010309010c07
0800010309010c07
08fc030902010403
08fc030902010403
08fc030902010403
08fc030902010403
08fc030902010403
08fc030902010403
08fc030902010403
08fc030902010403
fb0805fd05050206
fb0805fd05050206
fb0805fd05050206
fb0805fd05050206
fb0805fd05050206
fb0805fd05050206
fb0805fd05050206
fb0805fd05050206
fb07fffd08fefe01
fb07fffd08fefe01
fb07fffd08fefe01
fb07fffd08fefe01
fb07fffd08fefe01
fb07fffd08fefe01
fb07fffd08fefe01
fb07fffd08fefe01
0101ff06ff01f506
0101ff06ff01f506
0101ff06ff01f506
0101ff06ff01f506
0101ff06ff01f506
0101ff06ff01f506
0101ff06ff01f506
0101ff06ff01f506
fff5f8fd06030000
fff5f8fd06030000
fff5f8fd06030000
fff5f8fd06030000
fff5f8fd06030000
fff5f8fd06030000
fff5f8fd06030000
fff5f8fd06030000
0bff030400060905
0bff030400060905
0bff030400060905
0bff030400060905
0bff030400060905
0bff030400060905
0bff030400060905
0bff030400060905
f60603fefc000107
f60603fefc000107
f60603fefc000107
f60603fefc000107
f60603fefc000107
f60603fefc000107
f60603fefc000107
f60603fefc000107
fcf4fd04f5fc01fc
fcf4fd04f5fc01fc
fcf4fd04f5fc01fc
fcf4fd04f5fc01fc
fcf4fd04f5fc01fc
fcf4fd04f5fc01fc
fcf4fd04f5fc01fc
fcf4fd04f5fc01fc
fbf60d0603fffe04
fbf60d0603fffe04
fbf60d0603fffe04
fbf60d0603fffe04
fbf60d0603fffe04
fbf60d0603fffe04
fbf60d0603fffe04
fbf60d0603fffe04
020507030603ff00
020507030603ff00
020507030603ff00
020507030603ff00
020507030603ff00
020507030603ff00
020507030603ff00
020507030603ff00
01000a010600fefc
01000a010600fefc
01000a010600fefc
01000a010600fefc
01000a010600fefc
01000a010600fefc
01000a010600fefc
01000a010600fefc
030001fbff070202
030001fbff070202
030001fbff070202
030001fbff070202
030001fbff070202
030001fbff070202
030001fbff070202
030001fbff070202
0cfa000303fc0503
0cfa000303fc0503
0cfa000303fc0503
0cfa000303fc0503
0cfa000303fc0503
0cfa000303fc0503
0cfa000303fc0503
0cfa000303fc0503
040904030c0a0400
040904030c0a0400
040904030c0a0400
040904030c0a0400
040904030c0a0400
040904030c0a0400
040904030c0a0400
040904030c0a0400
fe01f5030705fe0c
fe01f5030705fe0c
fe01f5030705fe0c
fe01f5030705fe0c
fe01f5030705fe0c
fe01f5030705fe0c
fe01f5030705fe0c
fe01f5030705fe0c
04f902ff01f9fb0b
04f902ff01f9fb0b
04f902ff01f9fb0b
04f902ff01f9fb0b
04f902ff01f9fb0b
04f902ff01f9fb0b
04f902ff01f9fb0b
04f902ff01f9fb0b
f4030501fe100a02
f4030501fe100a02
f4030501fe100a02
f4030501fe100a02
f4030501fe100a02
f4030501fe100a02
f4030501fe100a02
f4030501fe100a02
060901040804060a
060901040804060a
060901040804060a
060901040804060a
060901040804060a
060901040804060a
060901040804060a
060901040804060a
0afd05fafc01f6fb
0afd05fafc01f6fb
0afd05fafc01f6fb
0afd05fafc01f6fb
0afd05fafc01f6fb
0afd05fafc01f6fb
0afd05fafc01f6fb
0afd05fafc01f6fb
fd0c06fd00020006
fd0c06fd00020006
fd0c06fd00020006
fd0c06fd00020006
fd0c06fd00020006
fd0c06fd00020006
fd0c06fd00020006
fd0c06fd00020006
0afbfdfb07fe0807
0afbfdfb07fe0807
0afbfdfb07fe0807
0afbfdfb07fe0807
0afbfdfb07fe0807
0afbfdfb07fe0807
0afbfdfb07fe0807
0afbfdfb07fe0807
03fdfefb0e00f6f6
03fdfefb0e00f6f6
03fdfefb0e00f6f6
03fdfefb0e00f6f6
03fdfefb0e00f6f6
03fdfefb0e00f6f6
03fdfefb0e00f6f6
03fdfefb0e00f6f6
01090a0808040907
01090a0808040907
01090a0808040907
01090a0808040907
01090a0808040907
01090a0808040907
01090a0808040907
01090a0808040907
fc010207fc0bfc02
fc010207fc0bfc02
fc010207fc0bfc02
fc010207fc0bfc02
fc010207fc0bfc02
fc010207fc0bfc02
fc010207fc0bfc02
fc010207fc0bfc02
070603ff00fbfcf8
070603ff00fbfcf8
070603ff00fbfcf8
070603ff00fbfcf8
070603ff00fbfcf8
070603ff00fbfcf8
070603ff00fbfcf8
070603ff00fbfcf8
05fe000603f9fd04
05fe000603f9fd04
05fe000603f9fd04
05fe000603f9fd04
05fe000603f9fd04
05fe000603f9fd04
05fe000603f9fd04
05fe000603f9fd04
09fb0a0903f6fb01
09fb0a0903f6fb01
09fb0a0903f6fb01
09fb0a0903f6fb01
09fb0a0903f6fb01
09fb0a0903f6fb01
09fb0a0903f6fb01
09fb0a0903f6fb01
0100010000000001
0100010000000001
0100010000000001
0100010000000001
0100010000000001
0100010000000001
0100010000000001
0100010000000001
ff00000000000002
ff00000000000002
ff00000000000002
ff00000000000002
ff00000000000002
ff00000000000002
ff00000000000002
ff00000000000002
0100000000000000
0100000000000000
0100000000000000
0100000000000000
0100000000000000
0100000000000000
0100000000000000
0100000000000000
ff01000100000001
ff01000100000001
ff01000100000001
ff01000100000001
ff01000100000001
ff01000100000001
ff01000100000001
ff01000100000001
000000020001ff01
000000020001ff01
000000020001ff01
000000020001ff01
000000020001ff01
000000020001ff01
000000020001ff01
000000020001ff01
000100ff00000100
000100ff00000100
000100ff00000100
000100ff00000100
000100ff00000100
000100ff00000100
000100ff00000100
000100ff00000100
0000ff0000000100
0000ff0000000100
0000ff0000000100
0000ff0000000100
0000ff0000000100
0000ff0000000100
0000ff0000000100
0000ff0000000100
0000000100010101
0000000100010101
0000000100010101
0000000100010101
0000000100010101
0000000100010101
0000000100010101
0000000100010101
01ff000000000000
01ff000000000000
01ff000000000000
01ff000000000000
01ff000000000000
01ff000000000000
01ff000000000000
01ff000000000000
0100000000010000
0100000000010000
0100000000010000
0100000000010000
0100000000010000
0100000000010000
0100000000010000
0100000000010000
00000000ff000000
00000000ff000000
00000000ff000000
00000000ff000000
00000000ff000000
00000000ff000000
00000000ff000000
00000000ff000000
01feff0000000100
01feff0000000100
01feff0000000100
01feff0000000100
01feff0000000100
01feff0000000100
01feff0000000100
01feff0000000100
000001000000ff00
000001000000ff00
000001000000ff00
000001000000ff00
000001000000ff00
000001000000ff00
000001000000ff00
000001000000ff00
01010000ff000000
01010000ff000000
01010000ff000000
01010000ff000000
01010000ff000000
01010000ff000000
01010000ff000000
01010000ff000000
0001ff01000000ff
0001ff01000000ff
0001ff01000000ff
0001ff01000000ff
0001ff01000000ff
0001ff01000000ff
0001ff01000000ff
0001ff01000000ff
00010000ff0000ff
00010000ff0000ff
00010000ff0000ff
00010000ff0000ff
00010000ff0000ff
00010000ff0000ff
00010000ff0000ff
00010000ff0000ff
000000ff000101ff
000000ff000101ff
000000ff000101ff
000000ff000101ff
000000ff000101ff
000000ff000101ff
000000ff000101ff
000000ff000101ff
fe0100ff0101fe01
fe0100ff0101fe01
fe0100ff0101fe01
fe0100ff0101fe01
fe0100ff0101fe01
fe0100ff0101fe01
fe0100ff0101fe01
fe0100ff0101fe01
00ff000000000000
00ff000000000000
00ff000000000000
00ff000000000000
00ff000000000000
00ff000000000000
00ff000000000000
00ff000000000000
0000000101010000
0000000101010000
0000000101010000
0000000101010000
0000000101010000
0000000101010000
0000000101010000
0000000101010000
0000000000000100
0000000000000100
0000000000000100
0000000000000100
0000000000000100
0000000000000100
0000000000000100
0000000000000100
010001010101ff00
010001010101ff00
010001010101ff00
010001010101ff00
010001010101ff00
010001010101ff00
010001010101ff00
010001010101ff00
0001ff000000ffff
0001ff000000ffff
0001ff000000ffff
0001ff000000ffff
0001ff000000ffff
0001ff000000ffff
0001ff000000ffff
0001ff000000ffff
00ffff0001ff0000
00ffff0001ff0000
00ffff0001ff0000
00ffff0001ff0000
00ffff0001ff0000
00ffff0001ff0000
00ffff0001ff0000
00ffff0001ff0000
0000000001ff00ff
0000000001ff00ff
0000000001ff00ff
0000000001ff00ff
0000000001ff00ff
0000000001ff00ff
0000000001ff00ff
0000000001ff00ff
000000ff0100ff00
000000ff0100ff00
000000ff0100ff00
000000ff0100ff00
000000ff0100ff00
000000ff0100ff00
000000ff0100ff00
000000ff0100ff00
0000ff000002ff00
0000ff000002ff00
0000ff000002ff00
0000ff000002ff00
0000ff000002ff00
0000ff000002ff00
0000ff000002ff00
0000ff000002ff00
ff01ffffffffff01
ff01ffffffffff01
ff01ffffffffff01
ff01ffffffffff01
ff01ffffffffff01
ff01ffffffffff01
ff01ffffffffff01
ff01ffffffffff01
ff00ff0101ff0000
ff00ff0101ff0000
ff00ff0101ff0000
ff00ff0101ff0000
ff00ff0101ff0000
ff00ff0101ff0000
ff00ff0101ff0000
ff00ff0101ff0000
0100000000000000
0100000000000000
0100000000000000
0100000000000000
0100000000000000
0100000000000000
0100000000000000
0100000000000000
00ffff000100ff00
00ffff000100ff00
00ffff000100ff00
00ffff000100ff00
00ffff000100ff00
00ffff000100ff00
00ffff000100ff00
00ffff000100ff00
ff010100ffffff01
ff010100ffffff01
ff010100ffffff01
ff010100ffffff01
ff010100ffffff01
ff010100ffffff01
ff010100ffffff01
ff010100ffffff01
f802fa0609fe0503
fcfe0207050804ff
fe01fffdfa020701
fafa01080702fafb
fcfa0106fc01fd08
fb0608ff06ff06fd
fefafdfafbff0600
fe04fd02fa090100
010606fbfafbf905
f803fdfc050109f8
00fc04ff06fa0904
fd0401040507fbfa
fbfafb05fbff0903
06f90a090907fc08
00f9fffcfcfbfefa
0405fd02fb020205
03050503060606fa
f9fc050403fd0701
f9ff0902fa00fe04
00fffbfd02040601
ff00f9000106fc03
03fb040702060704
08fffdf904fcfc03
fe0304fefe0400fa
05080401ff010af8
01fd0803ffff0707
0007080505fb0107
0603020006040402
01010107fd050506
f9fafa010afb08f9
01fd0002f903fffb
09fb03faf8030100
1f08f8f20dfc0df9
1f08f8f20dfc0df9
1f08f8f20dfc0df9
1f08f8f20dfc0df9
1f08f8f20dfc0df9
1f08f8f20dfc0df9
1f08f8f20dfc0df9
1f08f8f20dfc0df9
0b0efa171b150909
0b0efa171b150909
0b0efa171b150909
0b0efa171b150909
0b0efa171b150909
0b0efa171b150909
0b0efa171b150909
0b0efa171b150909
04ff0c0602070afe
04ff0c0602070afe
04ff0c0602070afe
04ff0c0602070afe
04ff0c0602070afe
04ff0c0602070afe
04ff0c0602070afe
04ff0c0602070afe
0d0b151e1e0b09fc
0d0b151e1e0b09fc
0d0b151e1e0b09fc
0d0b151e1e0b09fc
0d0b151e1e0b09fc
0d0b151e1e0b09fc
0d0b151e1e0b09fc
0d0b151e1e0b09fc
041017fcfb02fc0b
041017fcfb02fc0b
041017fcfb02fc0b
041017fcfb02fc0b
041017fcfb02fc0b
041017fcfb02fc0b
041017fcfb02fc0b
041017fcfb02fc0b
1c0915f91210120e
1c0915f91210120e
1c0915f91210120e
1c0915f91210120e
1c0915f91210120e
1c0915f91210120e
1c0915f91210120e
1c0915f91210120e
f40b0a03f9140cf9
f40b0a03f9140cf9
f40b0a03f9140cf9
f40b0a03f9140cf9
f40b0a03f9140cf9
f40b0a03f9140cf9
f40b0a03f9140cf9
f40b0a03f9140cf9
0a160110101f0b13
0a160110101f0b13
0a160110101f0b13
0a160110101f0b13
0a160110101f0b13
0a160110101f0b13
0a160110101f0b13
0a160110101f0b13
0a110cec0806060c
0a110cec0806060c
0a110cec0806060c
0a110cec0806060c
0a110cec0806060c
0a110cec0806060c
0a110cec0806060c
0a110cec0806060c
04fa07fef903020a
04fa07fef903020a
04fa07fef903020a
04fa07fef903020a
04fa07fef903020a
04fa07fef903020a
04fa07fef903020a
04fa07fef903020a
04fc0d12071015f2
04fc0d12071015f2
04fc0d12071015f2
04fc0d12071015f2
04fc0d12071015f2
04fc0d12071015f2
04fc0d12071015f2
04fc0d12071015f2
11020907020e000d
11020907020e000d
11020907020e000d
11020907020e000d
11020907020e000d
11020907020e000d
11020907020e000d
11020907020e000d
0705f710f8fc140a
0705f710f8fc140a
0705f710f8fc140a
0705f710f8fc140a
0705f710f8fc140a
0705f710f8fc140a
0705f710f8fc140a
0705f710f8fc140a
1112071513f51808
1112071513f51808
1112071513f51808
1112071513f51808
1112071513f51808
1112071513f51808
1112071513f51808
1112071513f51808
100a05f2010f1112
100a05f2010f1112
100a05f2010f1112
100a05f2010f1112
100a05f2010f1112
100a05f2010f1112
100a05f2010f1112
100a05f2010f1112
f307f2f2dffe101a
f307f2f2dffe101a
f307f2f2dffe101a
f307f2f2dffe101a
f307f2f2dffe101a
f307f2f2dffe101a
f307f2f2dffe101a
f307f2f2dffe101a
1b08031b14031402
1b08031b14031402
1b08031b14031402
1b08031b14031402
1b08031b14031402
1b08031b14031402
1b08031b14031402
1b08031b14031402
070b05fe0908060c
070b05fe0908060c
070b05fe0908060c
070b05fe0908060c
070b05fe0908060c
070b05fe0908060c
070b05fe0908060c
070b05fe0908060c
0f031df806170f03
0f031df806170f03
0f031df806170f03
0f031df806170f03
0f031df806170f03
0f031df806170f03
0f031df806170f03
0f031df806170f03
0a1901e40703020c
0a1901e40703020c
0a1901e40703020c
0a1901e40703020c
0a1901e40703020c
0a1901e40703020c
0a1901e40703020c
0a1901e40703020c
0c1408f2f9050d0e
0c1408f2f9050d0e
0c1408f2f9050d0e
0c1408f2f9050d0e
0c1408f2f9050d0e
0c1408f2f9050d0e
0c1408f2f9050d0e
0c1408f2f9050d0e
fcf9171708fd1115
fcf9171708fd1115
fcf9171708fd1115
fcf9171708fd1115
fcf9171708fd1115
fcf9171708fd1115
fcf9171708fd1115
fcf9171708fd1115
14030d0b1b0c0ef6
14030d0b1b0c0ef6
14030d0b1b0c0ef6
14030d0b1b0c0ef6
14030d0b1b0c0ef6
14030d0b1b0c0ef6
14030d0b1b0c0ef6
14030d0b1b0c0ef6
17fd030afa1d0a04
17fd030afa1d0a04
17fd030afa1d0a04
17fd030afa1d0a04
17fd030afa1d0a04
17fd030afa1d0a04
17fd030afa1d0a04
17fd030afa1d0a04
06fffa0011090e15
06fffa0011090e15
06fffa0011090e15
06fffa0011090e15
06fffa0011090e15
06fffa0011090e15
06fffa0011090e15
06fffa0011090e15
f8050f0910fe0af6
f8050f0910fe0af6
f8050f0910fe0af6
f8050f0910fe0af6
f8050f0910fe0af6
f8050f0910fe0af6
f8050f0910fe0af6
f8050f0910fe0af6
fe02050610130f09
fe02050610130f09
fe02050610130f09
fe02050610130f09
fe02050610130f09
fe02050610130f09
fe02050610130f09
fe02050610130f09
0e06010d140012fd
0e06010d140012fd
0e06010d140012fd
0e06010d140012fd
0e06010d140012fd
0e06010d140012fd
0e06010d140012fd
0e06010d140012fd
080df90f08ff1018
080df90f08ff1018
080df90f08ff1018
080df90f08ff1018
080df90f08ff1018
080df90f08ff1018
080df90f08ff1018
080df90f08ff1018
08fd0a0820140205
08fd0a0820140205
08fd0a0820140205
08fd0a0820140205
08fd0a0820140205
08fd0a0820140205
08fd0a0820140205
08fd0a0820140205
f8050bfb08f70202
f8050bfb08f70202
f8050bfb08f70202
f8050bfb08f70202
f8050bfb08f70202
f8050bfb08f70202
f8050bfb08f70202
f8050bfb08f70202
0ef8040f1efff819
0ef8040f1efff819
0ef8040f1efff819
0ef8040f1efff819
0ef8040f1efff819
0ef8040f1efff819
0ef8040f1efff819
0ef8040f1efff819
01ff000001000000
01ff000001000000
01ff000001000000
01ff000001000000
01ff000001000000
01ff000001000000
01ff000001000000
01ff000001000000
0000000000000000
0000000000000000
0000000000000000
0000000000000000
0000000000000000
0000000000000000
0000000000000000
0000000000000000
01000000ff0000ff
01000000ff0000ff
01000000ff0000ff
01000000ff0000ff
01000000ff0000ff
01000000ff0000ff
01000000ff0000ff
01000000ff0000ff
00ff000001000000
00ff000001000000
00ff000001000000
00ff000001000000
00ff000001000000
00ff000001000000
00ff000001000000
00ff000001000000
00ff0000000000ff
00ff0000000000ff
00ff0000000000ff
00ff0000000000ff
00ff0000000000ff
00ff0000000000ff
00ff0000000000ff
00ff0000000000ff
ff0000ff01000000
ff0000ff01000000
ff0000ff01000000
ff0000ff01000000
ff0000ff01000000
ff0000ff01000000
ff0000ff01000000
ff0000ff01000000
0000000001000000
0000000001000000
0000000001000000
0000000001000000
0000000001000000
0000000001000000
0000000001000000
0000000001000000
0000ff0000000000
0000ff0000000000
0000ff0000000000
0000ff0000000000
0000ff0000000000
0000ff0000000000
0000ff0000000000
0000ff0000000000
000000000001ff00
000000000001ff00
000000000001ff00
000000000001ff00
000000000001ff00
000000000001ff00
000000000001ff00
000000000001ff00
000000ff00000000
000000ff00000000
000000ff00000000
000000ff00000000
000000ff00000000
000000ff00000000
000000ff00000000
000000ff00000000
000001ff01000000
000001ff01000000
000001ff01000000
000001ff01000000
000001ff01000000
000001ff01000000
000001ff01000000
000001ff01000000
0000000000ffffff
0000000000ffffff
0000000000ffffff
0000000000ffffff
0000000000ffffff
0000000000ffffff
0000000000ffffff
0000000000ffffff
ff0000ff00ff0000
ff0000ff00ff0000
ff0000ff00ff0000
ff0000ff00ff0000
ff0000ff00ff0000
ff0000ff00ff0000
ff0000ff00ff0000
ff0000ff00ff0000
ff000000ff000100
ff000000ff000100
ff000000ff000100
ff000000ff000100
ff000000ff000100
ff000000ff000100
ff000000ff000100
ff000000ff000100
ff0001ff00ff0000
ff0001ff00ff0000
ff0001ff00ff0000
ff0001ff00ff0000
ff0001ff00ff0000
ff0001ff00ff0000
ff0001ff00ff0000
ff0001ff00ff0000
00ff00000100ff00
00ff00000100ff00
00ff00000100ff00
00ff00000100ff00
00ff00000100ff00
00ff00000100ff00
00ff00000100ff00
00ff00000100ff00
0100ff00ff000000
0100ff00ff000000
0100ff00ff000000
0100ff00ff000000
0100ff00ff000000
0100ff00ff000000
0100ff00ff000000
0100ff00ff000000
0100000000ff0000
0100000000ff0000
0100000000ff0000
0100000000ff0000
0100000000ff0000
0100000000ff0000
0100000000ff0000
0100000000ff0000
0001000000ff0000
0001000000ff0000
0001000000ff0000
0001000000ff0000
0001000000ff0000
0001000000ff0000
0001000000ff0000
0001000000ff0000
ff000001000000ff
ff000001000000ff
ff000001000000ff
ff000001000000ff
ff000001000000ff
ff000001000000ff
ff000001000000ff
ff000001000000ff
00000101ff000000
00000101ff000000
00000101ff000000
00000101ff000000
00000101ff000000
00000101ff000000
00000101ff000000
00000101ff000000
00000001ff01ffff
00000001ff01ffff
00000001ff01ffff
00000001ff01ffff
00000001ff01ffff
00000001ff01ffff
00000001ff01ffff
00000001ff01ffff
00000000000000ff
00000000000000ff
00000000000000ff
00000000000000ff
00000000000000ff
00000000000000ff
00000000000000ff
00000000000000ff
ff0000000000ff00
ff0000000000ff00
ff0000000000ff00
ff0000000000ff00
ff0000000000ff00
ff0000000000ff00
ff0000000000ff00
ff0000000000ff00
0000000000000000
0000000000000000
0000000000000000
0000000000000000
0000000000000000
0000000000000000
0000000000000000
0000000000000000
010001ff01000000
010001ff01000000
010001ff01000000
010001ff01000000
010001ff01000000
010001ff01000000
010001ff01000000
010001ff01000000
00ff00ff0100ff01
00ff00ff0100ff01
00ff00ff0100ff01
00ff00ff0100ff01
00ff00ff0100ff01
00ff00ff0100ff01
00ff00ff0100ff01
00ff00ff0100ff01
0000ff000000ff00
0000ff000000ff00
0000ff000000ff00
0000ff000000ff00
0000ff000000ff00
0000ff000000ff00
0000ff000000ff00
0000ff000000ff00
0101000000000000
0101000000000000
0101000000000000
0101000000000000
0101000000000000
0101000000000000
0101000000000000
0101000000000000
00ff000100000000
00ff000100000000
00ff000100000000
00ff000100000000
00ff000100000000
00ff000100000000
00ff000100000000
00ff000100000000
00000001ff01ff00
00000001ff01ff00
00000001ff01ff00
00000001ff01ff00
00000001ff01ff00
00000001ff01ff00
00000001ff01ff00
00000001ff01ff00
00ff000000000000
00ff000000000000
00ff000000000000
00ff000000000000
00ff000000000000
00ff000000000000
00ff000000000000
00ff000000000000
fcfcfbf8f7fbfd00
05f60404f6fbf703
fd04f8f902f905fb
05060307fdf9f705
05060102fb000104
04f902fcf8f7fcfc
f805f8fffe02ffff
f8f703fa08fbfa06
f9fd000303f80505
0106faf806030401
fafc0403f700fb05
f9fa01fffb01f7fd
03fafa04faff0004
0106fef6f8f80102
fafafff801070306
fcfffb00f905f900
0304fe010103f7fa
0503fbfa00020305
f705fb0500f9fcfa
fdfa06fa0504fa04
060001fbf8f9f9fb
fc00fbfaf9050404
f7fafcfbfb03fcfd
fd0201fa0200fef9
0002f8fafa0300f7
fbfa0203f702fd04
060200ff01000604
03fdf8f8f9f9fafc
06fef804f804fb05
fa0104fbf7fc0004
faf8ff01fafd04f9
00f8f8fc02fdfbfa
fffb03eaef011b09
fffb03eaef011b09
fffb03eaef011b09
fffb03eaef011b09
fffb03eaef011b09
fffb03eaef011b09
fffb03eaef011b09
fffb03eaef011b09
0afb0d16fb0000fa
0afb0d16fb0000fa
0afb0d16fb0000fa
0afb0d16fb0000fa
0afb0d16fb0000fa
0afb0d16fb0000fa
0afb0d16fb0000fa
0afb0d16fb0000fa
0ced0a0c0e1ff0fc
0ced0a0c0e1ff0fc
0ced0a0c0e1ff0fc
0ced0a0c0e1ff0fc
0ced0a0c0e1ff0fc
0ced0a0c0e1ff0fc
0ced0a0c0e1ff0fc
0ced0a0c0e1ff0fc
110417130a05000c
110417130a05000c
110417130a05000c
110417130a05000c
110417130a05000c
110417130a05000c
110417130a05000c
110417130a05000c
011319fe061815f6
011319fe061815f6
011319fe061815f6
011319fe061815f6
011319fe061815f6
011319fe061815f6
011319fe061815f6
011319fe061815f6
e9130a0508071015
e9130a0508071015
e9130a0508071015
e9130a0508071015
e9130a0508071015
e9130a0508071015
e9130a0508071015
e9130a0508071015
0511040b0101050b
0511040b0101050b
0511040b0101050b
0511040b0101050b
0511040b0101050b
0511040b0101050b
0511040b0101050b
0511040b0101050b
03f40aed0d070e0d
03f40aed0d070e0d
03f40aed0d070e0d
03f40aed0d070e0d
03f40aed0d070e0d
03f40aed0d070e0d
03f40aed0d070e0d
03f40aed0d070e0d
f50a0907fa1115f7
f50a0907fa1115f7
f50a0907fa1115f7
f50a0907fa1115f7
f50a0907fa1115f7
f50a0907fa1115f7
f50a0907fa1115f7
f50a0907fa1115f7
fb01040beb0f0202
fb01040beb0f0202
fb01040beb0f0202
fb01040beb0f0202
fb01040beb0f0202
fb01040beb0f0202
fb01040beb0f0202
fb01040beb0f0202
08fef010000bed07
08fef010000bed07
08fef010000bed07
08fef010000bed07
08fef010000bed07
08fef010000bed07
08fef010000bed07
08fef010000bed07
fe160c0ff214fe08
fe160c0ff214fe08
fe160c0ff214fe08
fe160c0ff214fe08
fe160c0ff214fe08
fe160c0ff214fe08
fe160c0ff214fe08
fe160c0ff214fe08
180c060a0808f6fd
180c060a0808f6fd
180c060a0808f6fd
180c060a0808f6fd
180c060a0808f6fd
180c060a0808f6fd
180c060a0808f6fd
180c060a0808f6fd
160df3fe07f30507
160df3fe07f30507
160df3fe07f30507
160df3fe07f30507
160df3fe07f30507
160df3fe07f30507
160df3fe07f30507
160df3fe07f30507
ee0905fb08fc0c29
ee0905fb08fc0c29
ee0905fb08fc0c29
ee0905fb08fc0c29
ee0905fb08fc0c29
ee0905fb08fc0c29
ee0905fb08fc0c29
ee0905fb08fc0c29
fb0f0003150df502
fb0f0003150df502
fb0f0003150df502
fb0f0003150df502
fb0f0003150df502
fb0f0003150df502
fb0f0003150df502
fb0f0003150df502
090f09f3ea111104
090f09f3ea111104
090f09f3ea111104
090f09f3ea111104
090f09f3ea111104
090f09f3ea111104
090f09f3ea111104
090f09f3ea111104
fdff14f30d120905
fdff14f30d120905
fdff14f30d120905
fdff14f30d120905
fdff14f30d120905
fdff14f30d120905
fdff14f30d120905
fdff14f30d120905
f40d1b040ef410f4
f40d1b040ef410f4
f40d1b040ef410f4
f40d1b040ef410f4
f40d1b040ef410f4
f40d1b040ef410f4
f40d1b040ef410f4
f40d1b040ef410f4
11ed0af1f013f602
11ed0af1f013f602
11ed0af1f013f602
11ed0af1f013f602
11ed0af1f013f602
11ed0af1f013f602
11ed0af1f013f602
11ed0af1f013f602
2405130a1a04f010
2405130a1a04f010
2405130a1a04f010
2405130a1a04f010
2405130a1a04f010
2405130a1a04f010
2405130a1a04f010
2405130a1a04f010
f60d15ef0f090213
f60d15ef0f090213
f60d15ef0f090213
f60d15ef0f090213
f60d15ef0f090213
f60d15ef0f090213
f60d15ef0f090213
f60d15ef0f090213
14f7030b070d0cfa
14f7030b070d0cfa
14f7030b070d0cfa
14f7030b070d0cfa
14f7030b070d0cfa
14f7030b070d0cfa
14f7030b070d0cfa
14f7030b070d0cfa
0310060e0713170a
0310060e0713170a
0310060e0713170a
0310060e0713170a
0310060e0713170a
0310060e0713170a
0310060e0713170a
0310060e0713170a
01f408160e101303
01f408160e101303
01f408160e101303
01f408160e101303
01f408160e101303
01f408160e101303
01f408160e101303
01f408160e101303
030feefc01041cff
030feefc01041cff
030feefc01041cff
030feefc01041cff
030feefc01041cff
030feefc01041cff
030feefc01041cff
030feefc01041cff
0316030811f7110c
0316030811f7110c
0316030811f7110c
0316030811f7110c
0316030811f7110c
0316030811f7110c
0316030811f7110c
0316030811f7110c
0a1afff8fdff1214
0a1afff8fdff1214
0a1afff8fdff1214
0a1afff8fdff1214
0a1afff8fdff1214
0a1afff8fdff1214
0a1afff8fdff1214
0a1afff8fdff1214
0e0f0bf2070d0200
0e0f0bf2070d0200
0e0f0bf2070d0200
0e0f0bf2070d0200
0e0f0bf2070d0200
0e0f0bf2070d0200
0e0f0bf2070d0200
0e0f0bf2070d0200
e5eb12090908fef9
e5eb12090908fef9
e5eb12090908fef9
e5eb12090908fef9
e5eb12090908fef9
e5eb12090908fef9
e5eb12090908fef9
e5eb12090908fef9
06171802ebfd17fd
06171802ebfd17fd
06171802ebfd17fd
06171802ebfd17fd
06171802ebfd17fd
06171802ebfd17fd
06171802ebfd17fd
06171802ebfd17fd
151703f50efeedf3
151703f50efeedf3
151703f50efeedf3
151703f50efeedf3
151703f50efeedf3
151703f50efeedf3
151703f50efeedf3
151703f50efeedf3
010100fffe010201
010100fffe010201
010100fffe010201
010100fffe010201
010100fffe010201
010100fffe010201
010100fffe010201
010100fffe010201
0100010002010001
0100010002010001
