4ab0109a05963518
259511141a0f1f83
0d9c8d1ba9ca5703
1e239b20a8091a94
3e06959bb70e2360
270788956c41df5e
0046088d02a86499
bd9f1964c430901f
8400000000000000
1800000000000000
a800000000000000
0000000000000000
9800000000000000
b400000000000000
9a00000000000000
be00000000000000
53d98f1400033f95
38a91cc09f150f57
03270ca81999160d
350c4d1419089bc4
0a0d291c3a168629
8e023248b3cb813d
1b2b842e3a810d2b
17b42a169dbea299
0d00000000000000
1a00000000000000
0b00000000000000
0600000000000000
9900000000000000
9000000000000000
0b00000000000000
3600000000000000
9da19ab95097c238
3344c13da24865a5
8d10670ed1881736
3b9692268c2c8908
a0caa5098d380d1a
88c181c89326109e
89ad1c830d06b410
1b832c208e2aaf12
b000000000000000
9e00000000000000
0600000000000000
1f00000000000000
2300000000000000
0900000000000000
4700000000000000
1b00000000000000
be06978486f93391
0ab0a36190330935
061c29a28c88aca8
42102d1207350b0b
180244941da99141
1e00189e3d14c551
873608dbdaad5089
e198bc0ba03434a6
8200000000000000
9100000000000000
0e00000000000000
8200000000000000
5100000000000000
2800000000000000
9800000000000000
bb00000000000000
1b9aa340080d50a0
9c0722a74a1fae24
8a250fb4533d830d
398e9a2d20e835aa
21030b988e86158e
148f1d1d929e94b2
a905d184180ea8bc
0a2818c5ae0acdb5
a400000000000000
3800000000000000
9000000000000000
2500000000000000
0700000000000000
c200000000000000
a100000000000000
6f00000000000000
852e84a59fb20f0f
adbe8f8915873322
85478518a00015ac
1acd8a9d14a94781
a3359c8f03098901
beb9861ec96518ab
a401874c4699ab36
2c94c395482708ae
1900000000000000
8900000000000000
0800000000000000
1600000000000000
a800000000000000
4100000000000000
9f00000000000000
1300000000000000
0a1844a9d2ddbad6
8f22cbab9a45193a
a7bac31f899b4fbd
374514a2166e58a0
0c84af31361f219e
8d2698822721cc2d
ae50300032af2e1d
a00002a702652de6
9d00000000000000
a600000000000000
1b00000000000000
c600000000000000
0900000000000000
9800000000000000
1e00000000000000
8d00000000000000
4307369388499f2a
d49d46bb061a1272
0ab08ba27f72baae
0a963993cc85409f
0a448686c518a68e
9607829e9d0f2ac5
981044ab1ad62c35
02071d0b1eccb248
2000000000000000
4700000000000000
2400000000000000
1e00000000000000
1f00000000000000
2000000000000000
2200000000000000
8300000000000000
125c58241306922a
918eba2cd1342602
bd909a83a19bc4a4
30be099b28051e88
8734342ed6ce4c2f
10ab0985004c19d7
bb9301882e159c24
1bd30303138ec60b
b000000000000000
1d00000000000000
0d00000000000000
8b00000000000000
1500000000000000
9c00000000000000
3300000000000000
9b00000000000000
