09e00420ecf11811
36e0e22df9f80007
06f70e001100e3f5
00cff9d4f0121701
c026d929ff003ea7
12000012e1e8d824
1c1f0cd927000706
c541fdfdf504d4ed
0600000000000000
f500000000000000
1700000000000000
0000000000000000
0500000000000000
ff00000000000000
0600000000000000
2000000000000000
0004fbd3ed06c601
b91fe5b9ff012a28
db00000b0cece820
34bc0bad3e060a5e
9361010d250711e4
fc0004c6e523f314
a5d93fe8f7f5004f
f9f30f001e00fff3
0000000000000000
0a00000000000000
f900000000000000
0800000000000000
0a00000000000000
0100000000000000
f700000000000000
1700000000000000
27220ad23c0a03d2
c45101f4f00613ee
e94f0616d60e2b1b
1cc00f30f6f500aa
12f00a00d4ffe3ea
0032fa01ec061501
0122e41aff001f2d
0c00000712e8ee13
0900000000000000
ec00000000000000
ff00000000000000
ee00000000000000
1400000000000000
0000000000000000
0700000000000000
fd00000000000000
eea6051e3bf63116
3b5af335f8ea004a
14f2fb0023fddfeb
00def905f32a4a01
1032c75e00019081
2c0000dfd6ee0409
bf2f06e20e150b2c
e1101b1c0703cf1d
f400000000000000
f100000000000000
1800000000000000
0000000000000000
f500000000000000
2100000000000000
0400000000000000
0a00000000000000
0030f6ccee140b02
b226d51a0001af3f
090100e415ed14fa
aaa706000922094b
0508273527081f2f
da2106b8300edc1a
924a0cd2f7ef00d8
f0ef0500f9fd1fe7
0000000000000000
f800000000000000
f500000000000000
0800000000000000
c900000000000000
fc00000000000000
fc00000000000000
1500000000000000
be2e0327f609038c
2ff4ff0fd9061523
c23908234bbdcb2f
35769db3f2e200d9
e0e0f500ecfb06d8
00f0fa2fec16e701
472bd4d9ff01af45
ed0000e819ecf009
0700000000000000
fd00000000000000
ed00000000000000
ef00000000000000
1100000000000000
0000000000000000
f900000000000000
1900000000000000
0fc20316db2bf112
21cc42ecf8e900ae
faf7f900c100fef7
0055fe3fef13e801
5825d7dd00003f9b
ee000016d9f223d2
2025022cd0070613
38b7fe0b0104e0f6
f400000000000000
f800000000000000
1700000000000000
0000000000000000
ed00000000000000
fd00000000000000
0200000000000000
f200000000000000
00c9f8fbeb091901
fc1edf200001212e
1501000f13f313e6
2eb30146b30c04fe
5a8f051108051ae9
f11503d0f1ef1913
bae6e62bfae900db
13f3fe00e4fd09f0
0000000000000000
f400000000000000
f700000000000000
0300000000000000
fa00000000000000
f900000000000000
ff00000000000000
1800000000000000
1424012fd009ffb2
40b8fff3e70509f2
ecfc0723d4f7d717
2dbbf4d2f6d8007c
f2f3ea0051fe2aea
00ddff1cee0ae101
2321e0ce00002d33
eb01000c14f615e4
0300000000000000
2500000000000000
e500000000000000
fa00000000000000
1500000000000000
ff00000000000000
f700000000000000
f800000000000000
0102030405060708
0102030405060708
0102030405060708
0102030405060708
0102030405060708
0102030405060708
0102030405060708
0102030405060708
090a0b0c0d0e0f10
090a0b0c0d0e0f10
090a0b0c0d0e0f10
090a0b0c0d0e0f10
090a0b0c0d0e0f10
090a0b0c0d0e0f10
090a0b0c0d0e0f10
090a0b0c0d0e0f10
f5383ef1b428f0f0
f5383ef1b428f0f0
f5383ef1b428f0f0
f5383ef1b428f0f0
f5383ef1b428f0f0
f5383ef1b428f0f0
f5383ef1b428f0f0
f5383ef1b428f0f0
3e5d47f3f689e3fe
3e5d47f3f689e3fe
3e5d47f3f689e3fe
3e5d47f3f689e3fe
3e5d47f3f689e3fe
3e5d47f3f689e3fe
3e5d47f3f689e3fe
3e5d47f3f689e3fe
d4872d05bedd391e
d4872d05bedd391e
d4872d05bedd391e
d4872d05bedd391e
d4872d05bedd391e
d4872d05bedd391e
d4872d05bedd391e
d4872d05bedd391e
0d2b6bfaf07822db
0d2b6bfaf07822db
0d2b6bfaf07822db
0d2b6bfaf07822db
0d2b6bfaf07822db
0d2b6bfaf07822db
0d2b6bfaf07822db
0d2b6bfaf07822db
e8a10bef0a7c0f06
e8a10bef0a7c0f06
e8a10bef0a7c0f06
e8a10bef0a7c0f06
e8a10bef0a7c0f06
e8a10bef0a7c0f06
e8a10bef0a7c0f06
e8a10bef0a7c0f06
c0040b08d5f0eede
c0040b08d5f0eede
c0040b08d5f0eede
c0040b08d5f0eede
c0040b08d5f0eede
c0040b08d5f0eede
c0040b08d5f0eede
c0040b08d5f0eede
76101bc936def25e
76101bc936def25e
76101bc936def25e
76101bc936def25e
76101bc936def25e
76101bc936def25e
76101bc936def25e
76101bc936def25e
1c1fd1231e00d3e5
1c1fd1231e00d3e5
1c1fd1231e00d3e5
1c1fd1231e00d3e5
1c1fd1231e00d3e5
1c1fd1231e00d3e5
1c1fd1231e00d3e5
1c1fd1231e00d3e5
bb45eecf31329552
bb45eecf31329552
bb45eecf31329552
bb45eecf31329552
bb45eecf31329552
bb45eecf31329552
bb45eecf31329552
bb45eecf31329552
bfa7fa13ffee5329
bfa7fa13ffee5329
bfa7fa13ffee5329
bfa7fa13ffee5329
bfa7fa13ffee5329
bfa7fa13ffee5329
bfa7fa13ffee5329
bfa7fa13ffee5329
3cd031e950213f10
3cd031e950213f10
3cd031e950213f10
3cd031e950213f10
3cd031e950213f10
3cd031e950213f10
3cd031e950213f10
3cd031e950213f10
0cf059f90054ee75
0cf059f90054ee75
0cf059f90054ee75
0cf059f90054ee75
0cf059f90054ee75
0cf059f90054ee75
0cf059f90054ee75
0cf059f90054ee75
fdb22608e1b2bb11
fdb22608e1b2bb11
fdb22608e1b2bb11
fdb22608e1b2bb11
fdb22608e1b2bb11
fdb22608e1b2bb11
fdb22608e1b2bb11
fdb22608e1b2bb11
dd2f85e964fbda9a
dd2f85e964fbda9a
dd2f85e964fbda9a
dd2f85e964fbda9a
dd2f85e964fbda9a
dd2f85e964fbda9a
dd2f85e964fbda9a
dd2f85e964fbda9a
b4297432b1eb562f
b4297432b1eb562f
b4297432b1eb562f
b4297432b1eb562f
b4297432b1eb562f
b4297432b1eb562f
b4297432b1eb562f
b4297432b1eb562f
c51528b61e33a1bb
c51528b61e33a1bb
c51528b61e33a1bb
c51528b61e33a1bb
c51528b61e33a1bb
c51528b61e33a1bb
c51528b61e33a1bb
c51528b61e33a1bb
0e529ff9e71815c2
0e529ff9e71815c2
0e529ff9e71815c2
0e529ff9e71815c2
0e529ff9e71815c2
0e529ff9e71815c2
0e529ff9e71815c2
0e529ff9e71815c2
2b6c04f10431baf5
2b6c04f10431baf5
2b6c04f10431baf5
2b6c04f10431baf5
2b6c04f10431baf5
2b6c04f10431baf5
2b6c04f10431baf5
2b6c04f10431baf5
cb01211ce9f92cb7
cb01211ce9f92cb7
cb01211ce9f92cb7
cb01211ce9f92cb7
cb01211ce9f92cb7
cb01211ce9f92cb7
cb01211ce9f92cb7
cb01211ce9f92cb7
e6d126c006ff0707
e6d126c006ff0707
e6d126c006ff0707
e6d126c006ff0707
e6d126c006ff0707
e6d126c006ff0707
e6d126c006ff0707
e6d126c006ff0707
26378c15bed90a19
26378c15bed90a19
26378c15bed90a19
26378c15bed90a19
26378c15bed90a19
26378c15bed90a19
26378c15bed90a19
26378c15bed90a19
8ced1113fb8fd081
8ced1113fb8fd081
8ced1113fb8fd081
8ced1113fb8fd081
8ced1113fb8fd081
8ced1113fb8fd081
8ced1113fb8fd081
8ced1113fb8fd081
e2fb9e00c9fdf514
e2fb9e00c9fdf514
e2fb9e00c9fdf514
e2fb9e00c9fdf514
e2fb9e00c9fdf514
e2fb9e00c9fdf514
e2fb9e00c9fdf514
e2fb9e00c9fdf514
17e86d1b41f321e6
17e86d1b41f321e6
17e86d1b41f321e6
17e86d1b41f321e6
17e86d1b41f321e6
17e86d1b41f321e6
17e86d1b41f321e6
17e86d1b41f321e6
23f41737eb9226eb
23f41737eb9226eb
23f41737eb9226eb
23f41737eb9226eb
23f41737eb9226eb
23f41737eb9226eb
23f41737eb9226eb
23f41737eb9226eb
8f24c814b8c6b239
8f24c814b8c6b239
8f24c814b8c6b239
8f24c814b8c6b239
8f24c814b8c6b239
8f24c814b8c6b239
8f24c814b8c6b239
8f24c814b8c6b239
a10b2c1cda0dbbb0
a10b2c1cda0dbbb0
a10b2c1cda0dbbb0
a10b2c1cda0dbbb0
a10b2c1cda0dbbb0
a10b2c1cda0dbbb0
a10b2c1cda0dbbb0
a10b2c1cda0dbbb0
aa56fb20c103d855
aa56fb20c103d855
aa56fb20c103d855
aa56fb20c103d855
aa56fb20c103d855
aa56fb20c103d855
aa56fb20c103d855
aa56fb20c103d855
a9969a9631d92423
a9969a9631d92423
a9969a9631d92423
a9969a9631d92423
a9969a9631d92423
a9969a9631d92423
a9969a9631d92423
a9969a9631d92423
2230d507cbb5f8eb
2230d507cbb5f8eb
2230d507cbb5f8eb
2230d507cbb5f8eb
2230d507cbb5f8eb
2230d507cbb5f8eb
2230d507cbb5f8eb
2230d507cbb5f8eb
44fa2038d46b03e4
44fa2038d46b03e4
44fa2038d46b03e4
44fa2038d46b03e4
44fa2038d46b03e4
44fa2038d46b03e4
44fa2038d46b03e4
44fa2038d46b03e4
e13a2ef8df3b0de9
e13a2ef8df3b0de9
e13a2ef8df3b0de9
e13a2ef8df3b0de9
e13a2ef8df3b0de9
e13a2ef8df3b0de9
e13a2ef8df3b0de9
e13a2ef8df3b0de9
bf053c8df1bafe2e
bf053c8df1bafe2e
bf053c8df1bafe2e
bf053c8df1bafe2e
bf053c8df1bafe2e
bf053c8df1bafe2e
bf053c8df1bafe2e
bf053c8df1bafe2e
84f039f41c4d0cf9
84f039f41c4d0cf9
84f039f41c4d0cf9
84f039f41c4d0cf9
84f039f41c4d0cf9
84f039f41c4d0cf9
84f039f41c4d0cf9
84f039f41c4d0cf9
a41623ca22b2f9f3
a41623ca22b2f9f3
a41623ca22b2f9f3
a41623ca22b2f9f3
a41623ca22b2f9f3
a41623ca22b2f9f3
a41623ca22b2f9f3
a41623ca22b2f9f3
33cd24f0362024a9
33cd24f0362024a9
33cd24f0362024a9
33cd24f0362024a9
33cd24f0362024a9
33cd24f0362024a9
33cd24f0362024a9
33cd24f0362024a9
bac4363ccfaa33d9
bac4363ccfaa33d9
bac4363ccfaa33d9
bac4363ccfaa33d9
bac4363ccfaa33d9
bac4363ccfaa33d9
bac4363ccfaa33d9
bac4363ccfaa33d9
f0c0e2b4ed21b726
f0c0e2b4ed21b726
f0c0e2b4ed21b726
f0c0e2b4ed21b726
f0c0e2b4ed21b726
f0c0e2b4ed21b726
f0c0e2b4ed21b726
f0c0e2b4ed21b726
03e747c9e3d8fa05
03e747c9e3d8fa05
03e747c9e3d8fa05
03e747c9e3d8fa05
03e747c9e3d8fa05
03e747c9e3d8fa05
03e747c9e3d8fa05
03e747c9e3d8fa05
534eaabab60620ed
534eaabab60620ed
534eaabab60620ed
534eaabab60620ed
534eaabab60620ed
534eaabab60620ed
534eaabab60620ed
534eaabab60620ed
3bf6a1f32bdd111d
3bf6a1f32bdd111d
3bf6a1f32bdd111d
3bf6a1f32bdd111d
3bf6a1f32bdd111d
3bf6a1f32bdd111d
3bf6a1f32bdd111d
3bf6a1f32bdd111d
34ef3cda94c311d9
34ef3cda94c311d9
34ef3cda94c311d9
34ef3cda94c311d9
34ef3cda94c311d9
34ef3cda94c311d9
34ef3cda94c311d9
34ef3cda94c311d9
bc1d17d567304638
bc1d17d567304638
bc1d17d567304638
bc1d17d567304638
bc1d17d567304638
bc1d17d567304638
bc1d17d567304638
bc1d17d567304638
ea4bfc3f0e1ed70f
ea4bfc3f0e1ed70f
ea4bfc3f0e1ed70f
ea4bfc3f0e1ed70f
ea4bfc3f0e1ed70f
ea4bfc3f0e1ed70f
ea4bfc3f0e1ed70f
ea4bfc3f0e1ed70f
08b0fdb5da3717ba
08b0fdb5da3717ba
08b0fdb5da3717ba
08b0fdb5da3717ba
08b0fdb5da3717ba
08b0fdb5da3717ba
08b0fdb5da3717ba
08b0fdb5da3717ba
bef507ba128e4df5
bef507ba128e4df5
bef507ba128e4df5
bef507ba128e4df5
bef507ba128e4df5
bef507ba128e4df5
bef507ba128e4df5
bef507ba128e4df5
57fcddc43f7f5811
57fcddc43f7f5811
57fcddc43f7f5811
57fcddc43f7f5811
57fcddc43f7f5811
57fcddc43f7f5811
57fcddc43f7f5811
57fcddc43f7f5811
d9407cdbe659c817
d9407cdbe659c817
d9407cdbe659c817
d9407cdbe659c817
d9407cdbe659c817
d9407cdbe659c817
d9407cdbe659c817
d9407cdbe659c817
0dc06ef1f61c9b28
0dc06ef1f61c9b28
0dc06ef1f61c9b28
0dc06ef1f61c9b28
0dc06ef1f61c9b28
0dc06ef1f61c9b28
0dc06ef1f61c9b28
0dc06ef1f61c9b28
e72018181fc23f27
e72018181fc23f27
e72018181fc23f27
e72018181fc23f27
e72018181fc23f27
e72018181fc23f27
e72018181fc23f27
e72018181fc23f27
98e6f4e2fde1f5fa
98e6f4e2fde1f5fa
98e6f4e2fde1f5fa
98e6f4e2fde1f5fa
98e6f4e2fde1f5fa
98e6f4e2fde1f5fa
98e6f4e2fde1f5fa
98e6f4e2fde1f5fa
710a85e6c83400a5
710a85e6c83400a5
710a85e6c83400a5
710a85e6c83400a5
710a85e6c83400a5
710a85e6c83400a5
710a85e6c83400a5
710a85e6c83400a5
0be9ffdebc38ccbd
0be9ffdebc38ccbd
0be9ffdebc38ccbd
0be9ffdebc38ccbd
0be9ffdebc38ccbd
0be9ffdebc38ccbd
0be9ffdebc38ccbd
0be9ffdebc38ccbd
67b314ae1813a0a9
67b314ae1813a0a9
67b314ae1813a0a9
67b314ae1813a0a9
67b314ae1813a0a9
67b314ae1813a0a9
67b314ae1813a0a9
67b314ae1813a0a9
e613efd9b418b206
e613efd9b418b206
e613efd9b418b206
e613efd9b418b206
e613efd9b418b206
e613efd9b418b206
e613efd9b418b206
e613efd9b418b206
e624fcee5d420343
e624fcee5d420343
e624fcee5d420343
e624fcee5d420343
e624fcee5d420343
e624fcee5d420343
e624fcee5d420343
e624fcee5d420343
e0c8fd183338f0bd
e0c8fd183338f0bd
e0c8fd183338f0bd
e0c8fd183338f0bd
e0c8fd183338f0bd
e0c8fd183338f0bd
e0c8fd183338f0bd
e0c8fd183338f0bd
c8375792f9a2ac21
c8375792f9a2ac21
c8375792f9a2ac21
c8375792f9a2ac21
c8375792f9a2ac21
c8375792f9a2ac21
c8375792f9a2ac21
c8375792f9a2ac21
3cf3ef1073343827
3cf3ef1073343827
3cf3ef1073343827
3cf3ef1073343827
3cf3ef1073343827
3cf3ef1073343827
3cf3ef1073343827
3cf3ef1073343827
13fef3a38aec0559
13fef3a38aec0559
13fef3a38aec0559
13fef3a38aec0559
13fef3a38aec0559
13fef3a38aec0559
13fef3a38aec0559
13fef3a38aec0559
98b9007d44503301
98b9007d44503301
98b9007d44503301
98b9007d44503301
98b9007d44503301
98b9007d44503301
98b9007d44503301
98b9007d44503301
4922e38fc605b41f
4922e38fc605b41f
4922e38fc605b41f
4922e38fc605b41f
4922e38fc605b41f
4922e38fc605b41f
4922e38fc605b41f
4922e38fc605b41f
df79fb910e8926c3
df79fb910e8926c3
df79fb910e8926c3
df79fb910e8926c3
df79fb910e8926c3
df79fb910e8926c3
df79fb910e8926c3
df79fb910e8926c3
1f09e0cbcbf988f9
1f09e0cbcbf988f9
1f09e0cbcbf988f9
1f09e0cbcbf988f9
1f09e0cbcbf988f9
1f09e0cbcbf988f9
1f09e0cbcbf988f9
1f09e0cbcbf988f9
c6f819ce44354fb9
c6f819ce44354fb9
c6f819ce44354fb9
c6f819ce44354fb9
c6f819ce44354fb9
c6f819ce44354fb9
c6f819ce44354fb9
c6f819ce44354fb9
43e0b2a3fc200198
43e0b2a3fc200198
43e0b2a3fc200198
43e0b2a3fc200198
43e0b2a3fc200198
43e0b2a3fc200198
43e0b2a3fc200198
43e0b2a3fc200198
283125eb8ce132c8
283125eb8ce132c8
283125eb8ce132c8
283125eb8ce132c8
283125eb8ce132c8
283125eb8ce132c8
283125eb8ce132c8
283125eb8ce132c8
25f62cc35094f8eb
25f62cc35094f8eb
25f62cc35094f8eb
25f62cc35094f8eb
25f62cc35094f8eb
25f62cc35094f8eb
25f62cc35094f8eb
25f62cc35094f8eb
09c40ee3f71471f7
09c40ee3f71471f7
09c40ee3f71471f7
09c40ee3f71471f7
09c40ee3f71471f7
09c40ee3f71471f7
09c40ee3f71471f7
09c40ee3f71471f7
2e173cf4b668fcf3
2e173cf4b668fcf3
2e173cf4b668fcf3
2e173cf4b668fcf3
2e173cf4b668fcf3
2e173cf4b668fcf3
2e173cf4b668fcf3
2e173cf4b668fcf3
1ae723ec64043c19
1ae723ec64043c19
1ae723ec64043c19
1ae723ec64043c19
1ae723ec64043c19
1ae723ec64043c19
1ae723ec64043c19
1ae723ec64043c19
891007f8fe24e115
891007f8fe24e115
891007f8fe24e115
891007f8fe24e115
891007f8fe24e115
891007f8fe24e115
891007f8fe24e115
891007f8fe24e115
fa8e1926184a0fed
fa8e1926184a0fed
fa8e1926184a0fed
fa8e1926184a0fed
fa8e1926184a0fed
fa8e1926184a0fed
fa8e1926184a0fed
fa8e1926184a0fed
2c34ad02c73ace7a
2c34ad02c73ace7a
2c34ad02c73ace7a
2c34ad02c73ace7a
2c34ad02c73ace7a
2c34ad02c73ace7a
2c34ad02c73ace7a
2c34ad02c73ace7a
cfdb21d9b0f55fee
cfdb21d9b0f55fee
cfdb21d9b0f55fee
cfdb21d9b0f55fee
cfdb21d9b0f55fee
cfdb21d9b0f55fee
cfdb21d9b0f55fee
cfdb21d9b0f55fee
74de1c42199e0079
74de1c42199e0079
74de1c42199e0079
74de1c42199e0079
74de1c42199e0079
74de1c42199e0079
74de1c42199e0079
74de1c42199e0079
1dd014cec20b5c0d
1dd014cec20b5c0d
1dd014cec20b5c0d
1dd014cec20b5c0d
1dd014cec20b5c0d
1dd014cec20b5c0d
1dd014cec20b5c0d
1dd014cec20b5c0d
1d1806ad2660f828
1d1806ad2660f828
1d1806ad2660f828
1d1806ad2660f828
1d1806ad2660f828
1d1806ad2660f828
1d1806ad2660f828
1d1806ad2660f828
d9d40696f8f83f1f
d9d40696f8f83f1f
d9d40696f8f83f1f
d9d40696f8f83f1f
d9d40696f8f83f1f
d9d40696f8f83f1f
d9d40696f8f83f1f
d9d40696f8f83f1f
542dbb4138f2b5f1
542dbb4138f2b5f1
542dbb4138f2b5f1
542dbb4138f2b5f1
542dbb4138f2b5f1
542dbb4138f2b5f1
542dbb4138f2b5f1
542dbb4138f2b5f1
bbd98c1504e5f2dd
bbd98c1504e5f2dd
bbd98c1504e5f2dd
bbd98c1504e5f2dd
bbd98c1504e5f2dd
bbd98c1504e5f2dd
bbd98c1504e5f2dd
bbd98c1504e5f2dd
7a545ff8ebc8ea32
7a545ff8ebc8ea32
7a545ff8ebc8ea32
7a545ff8ebc8ea32
7a545ff8ebc8ea32
7a545ff8ebc8ea32
7a545ff8ebc8ea32
7a545ff8ebc8ea32
6f52e548663cd74b
6f52e548663cd74b
6f52e548663cd74b
6f52e548663cd74b
6f52e548663cd74b
6f52e548663cd74b
6f52e548663cd74b
6f52e548663cd74b
0ffe042c23f4e4d9
0ffe042c23f4e4d9
0ffe042c23f4e4d9
0ffe042c23f4e4d9
0ffe042c23f4e4d9
0ffe042c23f4e4d9
0ffe042c23f4e4d9
0ffe042c23f4e4d9
c5283ff8b61fb982
c5283ff8b61fb982
c5283ff8b61fb982
c5283ff8b61fb982
c5283ff8b61fb982
c5283ff8b61fb982
c5283ff8b61fb982
c5283ff8b61fb982
22de20f6390a328a
22de20f6390a328a
22de20f6390a328a
22de20f6390a328a
22de20f6390a328a
22de20f6390a328a
22de20f6390a328a
22de20f6390a328a
85bcf9db4a010218
85bcf9db4a010218
85bcf9db4a010218
85bcf9db4a010218
85bcf9db4a010218
85bcf9db4a010218
85bcf9db4a010218
85bcf9db4a010218
3599ee2543a93a40
3599ee2543a93a40
3599ee2543a93a40
3599ee2543a93a40
3599ee2543a93a40
3599ee2543a93a40
3599ee2543a93a40
3599ee2543a93a40
f3483fe9547443a6
f3483fe9547443a6
f3483fe9547443a6
f3483fe9547443a6
f3483fe9547443a6
f3483fe9547443a6
f3483fe9547443a6
f3483fe9547443a6
1ad3595728f03a01
1ad3595728f03a01
1ad3595728f03a01
1ad3595728f03a01
1ad3595728f03a01
1ad3595728f03a01
1ad3595728f03a01
1ad3595728f03a01
6d1fc7bcf1111354
6d1fc7bcf1111354
6d1fc7bcf1111354
6d1fc7bcf1111354
6d1fc7bcf1111354
6d1fc7bcf1111354
6d1fc7bcf1111354
6d1fc7bcf1111354
528d282f5f58ccb1
528d282f5f58ccb1
528d282f5f58ccb1
528d282f5f58ccb1
528d282f5f58ccb1
528d282f5f58ccb1
528d282f5f58ccb1
528d282f5f58ccb1
0d1c3911fce276ad
0d1c3911fce276ad
0d1c3911fce276ad
0d1c3911fce276ad
0d1c3911fce276ad
0d1c3911fce276ad
0d1c3911fce276ad
0d1c3911fce276ad
d7ed4f26bf3c05ee
d7ed4f26bf3c05ee
d7ed4f26bf3c05ee
d7ed4f26bf3c05ee
d7ed4f26bf3c05ee
d7ed4f26bf3c05ee
d7ed4f26bf3c05ee
d7ed4f26bf3c05ee
2193d5e84432b53a
2193d5e84432b53a
2193d5e84432b53a
2193d5e84432b53a
2193d5e84432b53a
2193d5e84432b53a
2193d5e84432b53a
2193d5e84432b53a
ae31e6c4b5c2b8ca
ae31e6c4b5c2b8ca
ae31e6c4b5c2b8ca
ae31e6c4b5c2b8ca
ae31e6c4b5c2b8ca
ae31e6c4b5c2b8ca
ae31e6c4b5c2b8ca
ae31e6c4b5c2b8ca
dcd5c4efced1b908
dcd5c4efced1b908
dcd5c4efced1b908
dcd5c4efced1b908
dcd5c4efced1b908
dcd5c4efced1b908
dcd5c4efced1b908
dcd5c4efced1b908
0102030405060708
8136b507ab31c033
8136b507ab31c033
8136b507ab31c033
8136b507ab31c033
8136b507ab31c033
8136b507ab31c033
8136b507ab31c033
090a0b0c0d0e0f10
30d20bdd05e43f21
30d20bdd05e43f21
30d20bdd05e43f21
30d20bdd05e43f21
30d20bdd05e43f21
30d20bdd05e43f21
30d20bdd05e43f21
202fd512cdd4c53c
202fd512cdd4c53c
202fd512cdd4c53c
202fd512cdd4c53c
202fd512cdd4c53c
202fd512cdd4c53c
202fd512cdd4c53c
202fd512cdd4c53c
8136b507ab31c033
8136b507ab31c033
8136b507ab31c033
8136b507ab31c033
8136b507ab31c033
8136b507ab31c033
8136b507ab31c033
8136b507ab31c033
30d20bdd05e43f21
30d20bdd05e43f21
30d20bdd05e43f21
30d20bdd05e43f21
30d20bdd05e43f21
30d20bdd05e43f21
30d20bdd05e43f21
30d20bdd05e43f21
202fd512cdd4c53c
202fd512cdd4c53c
202fd512cdd4c53c
202fd512cdd4c53c
202fd512cdd4c53c
202fd512cdd4c53c
202fd512cdd4c53c
202fd512cdd4c53c
8136b507ab31c033
8136b507ab31c033
8136b507ab31c033
8136b507ab31c033
8136b507ab31c033
8136b507ab31c033
8136b507ab31c033
8136b507ab31c033
30d20bdd05e43f21
30d20bdd05e43f21
30d20bdd05e43f21
30d20bdd05e43f21
30d20bdd05e43f21
30d20bdd05e43f21
30d20bdd05e43f21
30d20bdd05e43f21
202fd512cdd4c53c
202fd512cdd4c53c
202fd512cdd4c53c
202fd512cdd4c53c
202fd512cdd4c53c
202fd512cdd4c53c
202fd512cdd4c53c
202fd512cdd4c53c
8136b507ab31c033
8136b507ab31c033
8136b507ab31c033
8136b507ab31c033
8136b507ab31c033
8136b507ab31c033
8136b507ab31c033
8136b507ab31c033
30d20bdd05e43f21
30d20bdd05e43f21
30d20bdd05e43f21
30d20bdd05e43f21
30d20bdd05e43f21
30d20bdd05e43f21
30d20bdd05e43f21
30d20bdd05e43f21
202fd512cdd4c53c
202fd512cdd4c53c
202fd512cdd4c53c
202fd512cdd4c53c
202fd512cdd4c53c
202fd512cdd4c53c
202fd512cdd4c53c
202fd512cdd4c53c
8136b507ab31c033
8136b507ab31c033
8136b507ab31c033
8136b507ab31c033
8136b507ab31c033
8136b507ab31c033
8136b507ab31c033
8136b507ab31c033
30d20bdd05e43f21
30d20bdd05e43f21
30d20bdd05e43f21
30d20bdd05e43f21
30d20bdd05e43f21
30d20bdd05e43f21
30d20bdd05e43f21
30d20bdd05e43f21
202fd512cdd4c53c
202fd512cdd4c53c
202fd512cdd4c53c
202fd512cdd4c53c
202fd512cdd4c53c
202fd512cdd4c53c
202fd512cdd4c53c
202fd512cdd4c53c
8136b507ab31c033
8136b507ab31c033
8136b507ab31c033
8136b507ab31c033
8136b507ab31c033
8136b507ab31c033
8136b507ab31c033
8136b507ab31c033
30d20bdd05e43f21
30d20bdd05e43f21
30d20bdd05e43f21
30d20bdd05e43f21
30d20bdd05e43f21
30d20bdd05e43f21
30d20bdd05e43f21
30d20bdd05e43f21
202fd512cdd4c53c
202fd512cdd4c53c
202fd512cdd4c53c
202fd512cdd4c53c
202fd512cdd4c53c
202fd512cdd4c53c
202fd512cdd4c53c
202fd512cdd4c53c
8136b507ab31c033
8136b507ab31c033
8136b507ab31c033
8136b507ab31c033
8136b507ab31c033
8136b507ab31c033
8136b507ab31c033
8136b507ab31c033
30d20bdd05e43f21
30d20bdd05e43f21
30d20bdd05e43f21
30d20bdd05e43f21
30d20bdd05e43f21
30d20bdd05e43f21
30d20bdd05e43f21
30d20bdd05e43f21
202fd512cdd4c53c
202fd512cdd4c53c
202fd512cdd4c53c
202fd512cdd4c53c
202fd512cdd4c53c
202fd512cdd4c53c
202fd512cdd4c53c
202fd512cdd4c53c
8136b507ab31c033
8136b507ab31c033
8136b507ab31c033
8136b507ab31c033
8136b507ab31c033
8136b507ab31c033
8136b507ab31c033
8136b507ab31c033
30d20bdd05e43f21
30d20bdd05e43f21
30d20bdd05e43f21
30d20bdd05e43f21
30d20bdd05e43f21
30d20bdd05e43f21
30d20bdd05e43f21
30d20bdd05e43f21
202fd512cdd4c53c
202fd512cdd4c53c
202fd512cdd4c53c
202fd512cdd4c53c
202fd512cdd4c53c
202fd512cdd4c53c
202fd512cdd4c53c
202fd512cdd4c53c
0102030405060708
ab9830eebacdf101
ab9830eebacdf101
ab9830eebacdf101
ab9830eebacdf101
ab9830eebacdf101
ab9830eebacdf101
ab9830eebacdf101
090a0b0c0d0e0f10
2b56e6e7de811dbf
2b56e6e7de811dbf
2b56e6e7de811dbf
2b56e6e7de811dbf
2b56e6e7de811dbf
2b56e6e7de811dbf
2b56e6e7de811dbf
77ec10ce9947611c
77ec10ce9947611c
77ec10ce9947611c
77ec10ce9947611c
77ec10ce9947611c
77ec10ce9947611c
77ec10ce9947611c
77ec10ce9947611c
ab9830eebacdf101
ab9830eebacdf101
ab9830eebacdf101
ab9830eebacdf101
ab9830eebacdf101
ab9830eebacdf101
ab9830eebacdf101
ab9830eebacdf101
2b56e6e7de811dbf
2b56e6e7de811dbf
2b56e6e7de811dbf
2b56e6e7de811dbf
2b56e6e7de811dbf
2b56e6e7de811dbf
2b56e6e7de811dbf
2b56e6e7de811dbf
77ec10ce9947611c
77ec10ce9947611c
77ec10ce9947611c
77ec10ce9947611c
77ec10ce9947611c
77ec10ce9947611c
77ec10ce9947611c
77ec10ce9947611c
ab9830eebacdf101
ab9830eebacdf101
ab9830eebacdf101
ab9830eebacdf101
ab9830eebacdf101
ab9830eebacdf101
ab9830eebacdf101
ab9830eebacdf101
2b56e6e7de811dbf
2b56e6e7de811dbf
2b56e6e7de811dbf
2b56e6e7de811dbf
2b56e6e7de811dbf
2b56e6e7de811dbf
2b56e6e7de811dbf
2b56e6e7de811dbf
77ec10ce9947611c
77ec10ce9947611c
77ec10ce9947611c
77ec10ce9947611c
77ec10ce9947611c
77ec10ce9947611c
77ec10ce9947611c
77ec10ce9947611c
ab9830eebacdf101
ab9830eebacdf101
ab9830eebacdf101
ab9830eebacdf101
ab9830eebacdf101
ab9830eebacdf101
ab9830eebacdf101
ab9830eebacdf101
2b56e6e7de811dbf
2b56e6e7de811dbf
2b56e6e7de811dbf
2b56e6e7de811dbf
2b56e6e7de811dbf
2b56e6e7de811dbf
2b56e6e7de811dbf
2b56e6e7de811dbf
77ec10ce9947611c
77ec10ce9947611c
77ec10ce9947611c
77ec10ce9947611c
77ec10ce9947611c
77ec10ce9947611c
77ec10ce9947611c
77ec10ce9947611c
ab9830eebacdf101
ab9830eebacdf101
ab9830eebacdf101
ab9830eebacdf101
ab9830eebacdf101
ab9830eebacdf101
ab9830eebacdf101
ab9830eebacdf101
2b56e6e7de811dbf
2b56e6e7de811dbf
2b56e6e7de811dbf
2b56e6e7de811dbf
2b56e6e7de811dbf
2b56e6e7de811dbf
2b56e6e7de811dbf
2b56e6e7de811dbf
77ec10ce9947611c
77ec10ce9947611c
77ec10ce9947611c
77ec10ce9947611c
77ec10ce9947611c
77ec10ce9947611c
77ec10ce9947611c
77ec10ce9947611c
ab9830eebacdf101
ab9830eebacdf101
ab9830eebacdf101
ab9830eebacdf101
ab9830eebacdf101
ab9830eebacdf101
ab9830eebacdf101
ab9830eebacdf101
2b56e6e7de811dbf
2b56e6e7de811dbf
2b56e6e7de811dbf
2b56e6e7de811dbf
2b56e6e7de811dbf
2b56e6e7de811dbf
2b56e6e7de811dbf
2b56e6e7de811dbf
77ec10ce9947611c
77ec10ce9947611c
77ec10ce9947611c
77ec10ce9947611c
77ec10ce9947611c
77ec10ce9947611c
77ec10ce9947611c
77ec10ce9947611c
ab9830eebacdf101
ab9830eebacdf101
9830eebacdf1012b
9830eebacdf1012b
9830eebacdf1012b
9830eebacdf1012b
9830eebacdf1012b
9830eebacdf1012b
2b56e6e7de811dbf
2b56e6e7de811dbf
56e6e7de811dbf77
56e6e7de811dbf77
56e6e7de811dbf77
56e6e7de811dbf77
56e6e7de811dbf77
56e6e7de811dbf77
77ec10ce9947611c
77ec10ce994761ab
ec10ce9947611cab
ec10ce9947611cab
ec10ce9947611cab
ec10ce9947611cab
ec10ce9947611cab
ec10ce9947611cab
9830eebacdf1012b
9830eebacdf1012b
9830eebacdf1012b
9830eebacdf1012b
9830eebacdf1012b
9830eebacdf1012b
9830eebacdf1012b
9830eebacdf1012b
56e6e7de811dbf77
56e6e7de811dbf77
56e6e7de811dbf77
56e6e7de811dbf77
56e6e7de811dbf77
56e6e7de811dbf77
56e6e7de811dbf77
56e6e7de811dbf77
ec10ce9947611cab
ec10ce9947611cab
ec10ce9947611cab
ec10ce9947611cab
ec10ce9947611cab
ec10ce9947611cab
ec10ce9947611cab
ec10ce9947611c1c
2618559cc2dd17f3
9cc2dd17f3d7001c
26d9d92618559cc2
2618559cc2dd17f3
62d9d126d9d92618
bcc7d12618559cc2
d1d11c62d9d126d9
b1b83dbcc7d12618
d7001cda04411217
da04411217cc1e04
dd17f3d7001cda04
d7001cda04411217
559cc2dd17f3d700
dd17f3d7001cda04
d92618559cc2dd17
559cc2dd17f3d700
cc1e042b324f0424
2b324f04248d2621
411217cc1e042b32
cc1e042b324f0424
1cda04411217cc1e
411217cc1e042b32
f3d7001cda044112
1cda04411217cc1e
8d26217f2507f826
7f2507f826372e63
4f04248d26217f25
8d26217f2507f826
042b324f04248d26
4f04248d26217f25
17cc1e042b324f04
042b324f04248d26
372e63df054da9f9
df054da9f9b99808
07f826372e63df05
372e63df054da9f9
217f2507f826372e
07f826372e63df05
248d26217f2507f8
217f2507f826372e
b99808edccdf8320
edccdf8320c85c3a
4da9f9b99808edcc
b99808edccdf8320
63df054da9f9b998
4da9f9b99808edcc
26372e63df054da9
63df054da9f9b998
c85c3a1ab82134b1
1ab82134b1b83db8
df8320c85c3a1ab8
c85c3a1ab82134b1
08edccdf8320c85c
df8320c85c3a1ab8
f9b99808edccdf83
08edccdf8320c85c
b83dbcc7d1261855
bcc7d1d11c62d9d1
2134b1b83dbcc7d1
b83db8bcc7d1d11c
3a1ab82134b1b83d
2134b1b83db8bcc7
20c85c3a1ab82134
3a1ab82134b1b83d
b8bcc7d1d11c62d9
b82134b1b83dbcc7
b1b83db8bcc7d1d1
5c3a1ab82134b1b8
b82134b1b83db8bc
8320c85c3a1ab821
5c3a1ab82134b1b8
edccdf8320c85c3a
d126d9d92618559c
d12618559cc2dd17
1c62d9d126d9d926
3dbcc7d12618559c
c7d1d11c62d9d126
34b1b83dbcc7d126
3db8bcc7d1d11c62
1ab82134b1b83dbc
c2dd17f3d7001cda
f3d7001cda044112
18559cc2dd17f3d7
c2dd17f3d7001cda
d9d92618559cc2dd
18559cc2dd17f3d7
d9d126d9d9261855
c7d12618559cc2dd
04411217cc1e042b
17cc1e042b324f04
001cda04411217cc
04411217cc1e042b
17f3d7001cda0441
001cda04411217cc
9cc2dd17f3d7001c
17f3d7001cda0441
324f04248d26217f
248d26217f2507f8
1e042b324f04248d
324f04248d26217f
1217cc1e042b324f
1e042b324f04248d
da04411217cc1e04
1217cc1e042b324f
2507f826372e63df
26372e63df054da9
26217f2507f82637
2507f826372e63df
04248d26217f2507
26217f2507f82637
2b324f04248d2621
04248d26217f2507
054da9f9b99808ed
f9b99808edccdf83
2e63df054da9f9b9
054da9f9b99808ed
f826372e63df054d
2e63df054da9f9b9
7f2507f826372e63
f826372e63df054d
ccdf8320c85c3a1a
20c85c3a1ab82134
9808edccdf8320c8
ccdf8320c85c3a1a
a9f9b99808edccdf
9808edccdf8320c8
df054da9f9b99808
a9f9b99808edccdf
8320c85c3a1ab821
b99808edccdf8320
edccdf8320c85c3a
4da9f9b99808edcc
b99808edccdf8320
63df054da9f9b998
4da9f9b99808edcc
26372e63df054da9
34b1b83db8bcc7d1
c85c3a1ab82134b1
1ab82134b1b83db8
df8320c85c3a1ab8
c85c3a1ab82134b1
08edccdf8320c85c
df8320c85c3a1ab8
f9b99808edccdf83
d11c62d9d126d9d9
b83dbcc7d1261855
bcc7d1d11c62d9d1
2134b1b83dbcc7d1
b83db8bcc7d1d11c
3a1ab82134b1b83d
2134b1b83db8bcc7
20c85c3a1ab82134
2618559cc2dd17f3
9cc2dd17f3d7001c
26d9d92618559cc2
2618559cc2dd17f3
62d9d126d9d92618
bcc7d12618559cc2
d1d11c62d9d126d9
b1b83dbcc7d12618
d7001cda04411217
da04411217cc1e04
dd17f3d7001cda04
d7001cda04411217
559cc2dd17f3d700
dd17f3d7001cda04
d92618559cc2dd17
559cc2dd17f3d700
cc1e042b324f0424
2b324f04248d2621
411217cc1e042b32
cc1e042b324f0424
1cda04411217cc1e
411217cc1e042b32
f3d7001cda044112
1cda04411217cc1e
8d26217f2507f826
7f2507f826372e63
4f04248d26217f25
8d26217f2507f826
042b324f04248d26
4f04248d26217f25
17cc1e042b324f04
042b324f04248d26
372e63df054da9f9
df054da9f9b99808
07f826372e63df05
372e63df054da9f9
217f2507f826372e
07f826372e63df05
248d26217f2507f8
217f2507f826372e
63df054da9f9b998
2507f826372e63df
26372e63df054da9
26217f2507f82637
2507f826372e63df
04248d26217f2507
26217f2507f82637
2b324f04248d2621
08edccdf8320c85c
054da9f9b99808ed
f9b99808edccdf83
2e63df054da9f9b9
054da9f9b99808ed
f826372e63df054d
2e63df054da9f9b9
7f2507f826372e63
3a1ab82134b1b83d
ccdf8320c85c3a1a
20c85c3a1ab82134
9808edccdf8320c8
ccdf8320c85c3a1a
a9f9b99808edccdf
9808edccdf8320c8
df054da9f9b99808
b8bcc7d1d11c62d9
b82134b1b83dbcc7
b1b83db8bcc7d1d1
5c3a1ab82134b1b8
b82134b1b83db8bc
8320c85c3a1ab821
5c3a1ab82134b1b8
edccdf8320c85c3a
d126d9d92618559c
d12618559cc2dd17
1c62d9d126d9d926
3dbcc7d12618559c
c7d1d11c62d9d126
34b1b83dbcc7d126
3db8bcc7d1d11c62
1ab82134b1b83dbc
c2dd17f3d7001cda
f3d7001cda044112
18559cc2dd17f3d7
c2dd17f3d7001cda
d9d92618559cc2dd
18559cc2dd17f3d7
d9d126d9d9261855
c7d12618559cc2dd
04411217cc1e042b
17cc1e042b324f04
001cda04411217cc
04411217cc1e042b
17f3d7001cda0441
001cda04411217cc
9cc2dd17f3d7001c
17f3d7001cda0441
324f04248d26217f
248d26217f2507f8
1e042b324f04248d
324f04248d26217f
1217cc1e042b324f
1e042b324f04248d
da04411217cc1e04
1217cc1e042b324f
04248d26217f2507
cc1e042b324f0424
2b324f04248d2621
411217cc1e042b32
cc1e042b324f0424
1cda04411217cc1e
411217cc1e042b32
f3d7001cda044112
f826372e63df054d
8d26217f2507f826
7f2507f826372e63
4f04248d26217f25
8d26217f2507f826
042b324f04248d26
4f04248d26217f25
17cc1e042b324f04
a9f9b99808edccdf
372e63df054da9f9
df054da9f9b99808
07f826372e63df05
372e63df054da9f9
217f2507f826372e
07f826372e63df05
248d26217f2507f8
8320c85c3a1ab821
b99808edccdf8320
edccdf8320c85c3a
4da9f9b99808edcc
b99808edccdf8320
63df054da9f9b998
4da9f9b99808edcc
26372e63df054da9
34b1b83db8bcc7d1
c85c3a1ab82134b1
1ab82134b1b83db8
df8320c85c3a1ab8
c85c3a1ab82134b1
08edccdf8320c85c
df8320c85c3a1ab8
f9b99808edccdf83
d11c62d9d126d9d9
b83dbcc7d1261855
bcc7d1d11c62d9d1
2134b1b83dbcc7d1
b83db8bcc7d1d11c
3a1ab82134b1b83d
2134b1b83db8bcc7
20c85c3a1ab82134
2618559cc2dd17f3
9cc2dd17f3d7001c
26d9d92618559cc2
2618559cc2dd17f3
62d9d126d9d92618
bcc7d12618559cc2
d1d11c62d9d126d9
b1b83dbcc7d12618
d7001cda04411217
da04411217cc1e04
dd17f3d7001cda04
d7001cda04411217
559cc2dd17f3d700
dd17f3d7001cda04
d92618559cc2dd17
559cc2dd17f3d700
1cda04411217cc1e
c2dd17f3d7001cda
f3d7001cda044112
18559cc2dd17f3d7
c2dd17f3d7001cda
d9d92618559cc2dd
18559cc2dd17f3d7
d9d126d9d9261855
042b324f04248d26
04411217cc1e042b
17cc1e042b324f04
001cda04411217cc
04411217cc1e042b
17f3d7001cda0441
001cda04411217cc
9cc2dd17f3d7001c
217f2507f826372e
324f04248d26217f
248d26217f2507f8
1e042b324f04248d
324f04248d26217f
1217cc1e042b324f
1e042b324f04248d
da04411217cc1e04
63df054da9f9b998
2507f826372e63df
26372e63df054da9
26217f2507f82637
2507f826372e63df
04248d26217f2507
26217f2507f82637
2b324f04248d2621
08edccdf8320c85c
054da9f9b99808ed
f9b99808edccdf83
2e63df054da9f9b9
054da9f9b99808ed
f826372e63df054d
2e63df054da9f9b9
7f2507f826372e63
3a1ab82134b1b83d
ccdf8320c85c3a1a
20c85c3a1ab82134
9808edccdf8320c8
ccdf8320c85c3a1a
a9f9b99808edccdf
9808edccdf8320c8
df054da9f9b99808
b8bcc7d1d11c62d9
b82134b1b83dbcc7
b1b83db8bcc7d1d1
5c3a1ab82134b1b8
b82134b1b83db8bc
8320c85c3a1ab821
5c3a1ab82134b1b8
edccdf8320c85c3a
d126d9d92618559c
d12618559cc2dd17
1c62d9d126d9d926
3dbcc7d12618559c
c7d1d11c62d9d126
34b1b83dbcc7d126
3db8bcc7d1d11c62
1ab82134b1b83dbc
c7d12618559cc2dd
d11c62d9d126d9d9
b83dbcc7d1261855
bcc7d1d11c62d9d1
2134b1b83dbcc7d1
b83db8bcc7d1d11c
3a1ab82134b1b83d
2134b1b83db8bcc7
17f3d7001cda0441
2618559cc2dd17f3
9cc2dd17f3d7001c
26d9d92618559cc2
2618559cc2dd17f3
62d9d126d9d92618
bcc7d12618559cc2
d1d11c62d9d126d9
1217cc1e042b324f
d7001cda04411217
da04411217cc1e04
dd17f3d7001cda04
d7001cda04411217
559cc2dd17f3d700
dd17f3d7001cda04
d92618559cc2dd17
04248d26217f2507
cc1e042b324f0424
2b324f04248d2621
411217cc1e042b32
cc1e042b324f0424
1cda04411217cc1e
411217cc1e042b32
f3d7001cda044112
f826372e63df054d
8d26217f2507f826
7f2507f826372e63
4f04248d26217f25
8d26217f2507f826
042b324f04248d26
4f04248d26217f25
17cc1e042b324f04
a9f9b99808edccdf
372e63df054da9f9
df054da9f9b99808
07f826372e63df05
372e63df054da9f9
217f2507f826372e
07f826372e63df05
248d26217f2507f8
8320c85c3a1ab821
b99808edccdf8320
edccdf8320c85c3a
4da9f9b99808edcc
b99808edccdf8320
63df054da9f9b998
4da9f9b99808edcc
26372e63df054da9
34b1b83db8bcc7d1
c85c3a1ab82134b1
1ab82134b1b83db8
df8320c85c3a1ab8
c85c3a1ab82134b1
08edccdf8320c85c
df8320c85c3a1ab8
f9b99808edccdf83
20c85c3a1ab82134
3a1ab82134b1b83d
ccdf8320c85c3a1a
20c85c3a1ab82134
9808edccdf8320c8
ccdf8320c85c3a1a
a9f9b99808edccdf
9808edccdf8320c8
b1b83dbcc7d12618
b8bcc7d1d11c62d9
b82134b1b83dbcc7
b1b83db8bcc7d1d1
5c3a1ab82134b1b8
b82134b1b83db8bc
8320c85c3a1ab821
5c3a1a04411217cc
559cc2dd17f3d700
d126d9d92618559c
d12618559cc2dd17
1c62d9d126d9d926
3dbcc7d12618559c
c7d1d11c62d9d126
34b1b83dbcc7d126
1e042b324f04248d
1cda04411217cc1e
c2dd17f3d7001cda
f3d7001cda044112
18559cc2dd17f3d7
c2dd17f3d7001cda
d9d92618559cc2dd
18559cc2dd17f3d7
26217f2507f82637
042b324f04248d26
04411217cc1e042b
17cc1e042b324f04
001cda04411217cc
04411217cc1e042b
17f3d7001cda0441
001cda04411217cc
2e63df054da9f9b9
217f2507f826372e
324f04248d26217f
248d26217f2507f8
1e042b324f04248d
324f04248d26217f
1217cc1e042b324f
1e042b324f04248d
9808edccdf8320c8
63df054da9f9b998
2507f826372e63df
26372e63df054da9
26217f2507f82637
2507f826372e63df
04248d26217f2507
26217f2507f82637
5c3a1ab82134b1b8
08edccdf8320c85c
054da9f9b99808ed
f9b99808edccdf83
2e63df054da9f9b9
054da9f9b99808ed
f826372e63df054d
2e63df054da9f9b9
3db8bcc7d1d11c62
14471f109c2537fa
14471f109c2537fa
14471f109c2537fa
14471f109c2537fa
14471f109c2537fa
14471f109c2537fa
14471f109c2537fa
14471f109c2537fa
ee63973bbe11b4e1
ee63973bbe11b4e1
ee63973bbe11b4e1
ee63973bbe11b4e1
ee63973bbe11b4e1
ee63973bbe11b4e1
ee63973bbe11b4e1
ee63973bbe11b4e1
f1e6034421f01eb0
f1e6034421f01eb0
f1e6034421f01eb0
f1e6034421f01eb0
f1e6034421f01eb0
f1e6034421f01eb0
f1e6034421f01eb0
f1e6034421f01eb0
ece7f10423688722
ece7f10423688722
ece7f10423688722
ece7f10423688722
ece7f10423688722
ece7f10423688722
ece7f10423688722
ece7f10423688722
44a374d90c1c2e20
44a374d90c1c2e20
44a374d90c1c2e20
44a374d90c1c2e20
44a374d90c1c2e20
44a374d90c1c2e20
44a374d90c1c2e20
44a374d90c1c2e20
fdb2143811ea42f6
fdb2143811ea42f6
fdb2143811ea42f6
fdb2143811ea42f6
fdb2143811ea42f6
fdb2143811ea42f6
fdb2143811ea42f6
fdb2143811ea42f6
19f869ebfadc3ef2
19f869ebfadc3ef2
19f869ebfadc3ef2
19f869ebfadc3ef2
19f869ebfadc3ef2
19f869ebfadc3ef2
19f869ebfadc3ef2
19f869ebfadc3ef2
2ad7f4b9ea49df7c
2ad7f4b9ea49df7c
2ad7f4b9ea49df7c
2ad7f4b9ea49df7c
2ad7f4b9ea49df7c
2ad7f4b9ea49df7c
2ad7f4b9ea49df7c
2ad7f4b9ea49df7c
414315f53225c952
414315f53225c952
414315f53225c952
414315f53225c952
414315f53225c952
414315f53225c952
414315f53225c952
414315f53225c952
91edbf140a3a3c48
91edbf140a3a3c48
91edbf140a3a3c48
91edbf140a3a3c48
91edbf140a3a3c48
91edbf140a3a3c48
91edbf140a3a3c48
91edbf140a3a3c48
3ed2c0eaf80e1708
3ed2c0eaf80e1708
3ed2c0eaf80e1708
3ed2c0eaf80e1708
3ed2c0eaf80e1708
3ed2c0eaf80e1708
3ed2c0eaf80e1708
3ed2c0eaf80e1708
160ad5f6b5cc3cbc
160ad5f6b5cc3cbc
160ad5f6b5cc3cbc
160ad5f6b5cc3cbc
160ad5f6b5cc3cbc
160ad5f6b5cc3cbc
160ad5f6b5cc3cbc
160ad5f6b5cc3cbc
a016d3eb53774d0d
a016d3eb53774d0d
a016d3eb53774d0d
a016d3eb53774d0d
a016d3eb53774d0d
a016d3eb53774d0d
a016d3eb53774d0d
a016d3eb53774d0d
feb4deb3d90fa003
feb4deb3d90fa003
feb4deb3d90fa003
feb4deb3d90fa003
feb4deb3d90fa003
feb4deb3d90fa003
feb4deb3d90fa003
feb4deb3d90fa003
ce12d9daccc833f7
ce12d9daccc833f7
ce12d9daccc833f7
ce12d9daccc833f7
ce12d9daccc833f7
ce12d9daccc833f7
ce12d9daccc833f7
ce12d9daccc833f7
c3f0b9d58c1be5fd
c3f0b9d58c1be5fd
c3f0b9d58c1be5fd
c3f0b9d58c1be5fd
c3f0b9d58c1be5fd
c3f0b9d58c1be5fd
c3f0b9d58c1be5fd
c3f0b9d58c1be5fd
bcd3041bbe93c27c
bcd3041bbe93c27c
bcd3041bbe93c27c
bcd3041bbe93c27c
bcd3041bbe93c27c
bcd3041bbe93c27c
bcd3041bbe93c27c
bcd3041bbe93c27c
3d09ba2f0c34e902
3d09ba2f0c34e902
3d09ba2f0c34e902
3d09ba2f0c34e902
3d09ba2f0c34e902
3d09ba2f0c34e902
3d09ba2f0c34e902
3d09ba2f0c34e902
1bf768f3addbbb27
1bf768f3addbbb27
1bf768f3addbbb27
1bf768f3addbbb27
1bf768f3addbbb27
1bf768f3addbbb27
1bf768f3addbbb27
1bf768f3addbbb27
ab29ede131df303c
ab29ede131df303c
ab29ede131df303c
ab29ede131df303c
ab29ede131df303c
ab29ede131df303c
ab29ede131df303c
ab29ede131df303c
e38d479ce5ff46c9
e38d479ce5ff46c9
e38d479ce5ff46c9
e38d479ce5ff46c9
e38d479ce5ff46c9
e38d479ce5ff46c9
e38d479ce5ff46c9
e38d479ce5ff46c9
ae003ea7f8ba1de9
ae003ea7f8ba1de9
ae003ea7f8ba1de9
ae003ea7f8ba1de9
ae003ea7f8ba1de9
ae003ea7f8ba1de9
ae003ea7f8ba1de9
ae003ea7f8ba1de9
5043fae77b2cfa2b
5043fae77b2cfa2b
5043fae77b2cfa2b
5043fae77b2cfa2b
5043fae77b2cfa2b
5043fae77b2cfa2b
5043fae77b2cfa2b
5043fae77b2cfa2b
4095244f0494c039
4095244f0494c039
4095244f0494c039
4095244f0494c039
4095244f0494c039
4095244f0494c039
4095244f0494c039
4095244f0494c039
50ba23fa14e408ae
50ba23fa14e408ae
50ba23fa14e408ae
50ba23fa14e408ae
50ba23fa14e408ae
50ba23fa14e408ae
50ba23fa14e408ae
50ba23fa14e408ae
ca0d08c7e1f3133c
ca0d08c7e1f3133c
ca0d08c7e1f3133c
ca0d08c7e1f3133c
ca0d08c7e1f3133c
ca0d08c7e1f3133c
ca0d08c7e1f3133c
ca0d08c7e1f3133c
08e2f109b2ea0187
08e2f109b2ea0187
08e2f109b2ea0187
08e2f109b2ea0187
08e2f109b2ea0187
08e2f109b2ea0187
08e2f109b2ea0187
08e2f109b2ea0187
c514e8feb9fba6c3
c514e8feb9fba6c3
c514e8feb9fba6c3
c514e8feb9fba6c3
c514e8feb9fba6c3
c514e8feb9fba6c3
c514e8feb9fba6c3
c514e8feb9fba6c3
c4e9413852d3e7f3
c4e9413852d3e7f3
c4e9413852d3e7f3
c4e9413852d3e7f3
c4e9413852d3e7f3
c4e9413852d3e7f3
c4e9413852d3e7f3
c4e9413852d3e7f3
ca0daa380929e2f0
ca0daa380929e2f0
ca0daa380929e2f0
ca0daa380929e2f0
ca0daa380929e2f0
ca0daa380929e2f0
ca0daa380929e2f0
ca0daa380929e2f0
f3149c0e2a27ead7
f3149c0e2a27ead7
f3149c0e2a27ead7
f3149c0e2a27ead7
f3149c0e2a27ead7
f3149c0e2a27ead7
f3149c0e2a27ead7
f3149c0e2a27ead7
d7e2d199cfc3223e
d7e2d199cfc3223e
d7e2d199cfc3223e
d7e2d199cfc3223e
d7e2d199cfc3223e
d7e2d199cfc3223e
d7e2d199cfc3223e
d7e2d199cfc3223e
5cfa91105b3c30ee
5cfa91105b3c30ee
5cfa91105b3c30ee
5cfa91105b3c30ee
5cfa91105b3c30ee
5cfa91105b3c30ee
5cfa91105b3c30ee
5cfa91105b3c30ee
dc911536cf6222a8
dc911536cf6222a8
dc911536cf6222a8
dc911536cf6222a8
dc911536cf6222a8
dc911536cf6222a8
dc911536cf6222a8
dc911536cf6222a8
0750072525192e3c
0750072525192e3c
0750072525192e3c
0750072525192e3c
0750072525192e3c
0750072525192e3c
0750072525192e3c
0750072525192e3c
35b5fd5d1810bb09
35b5fd5d1810bb09
35b5fd5d1810bb09
35b5fd5d1810bb09
35b5fd5d1810bb09
35b5fd5d1810bb09
35b5fd5d1810bb09
35b5fd5d1810bb09
c3f2ddeaecf6bb5c
c3f2ddeaecf6bb5c
c3f2ddeaecf6bb5c
c3f2ddeaecf6bb5c
c3f2ddeaecf6bb5c
c3f2ddeaecf6bb5c
c3f2ddeaecf6bb5c
c3f2ddeaecf6bb5c
1eca3bde1c4ce034
1eca3bde1c4ce034
1eca3bde1c4ce034
1eca3bde1c4ce034
1eca3bde1c4ce034
1eca3bde1c4ce034
1eca3bde1c4ce034
1eca3bde1c4ce034
36d8dabcd4c6dbfc
36d8dabcd4c6dbfc
36d8dabcd4c6dbfc
36d8dabcd4c6dbfc
36d8dabcd4c6dbfc
36d8dabcd4c6dbfc
36d8dabcd4c6dbfc
36d8dabcd4c6dbfc
d725573a9abb4f5c
d725573a9abb4f5c
d725573a9abb4f5c
d725573a9abb4f5c
d725573a9abb4f5c
d725573a9abb4f5c
d725573a9abb4f5c
d725573a9abb4f5c
26776d6fe74cc7d2
26776d6fe74cc7d2
26776d6fe74cc7d2
26776d6fe74cc7d2
26776d6fe74cc7d2
26776d6fe74cc7d2
26776d6fe74cc7d2
26776d6fe74cc7d2
32d0122d4a13ff19
32d0122d4a13ff19
32d0122d4a13ff19
32d0122d4a13ff19
32d0122d4a13ff19
32d0122d4a13ff19
32d0122d4a13ff19
32d0122d4a13ff19
025cf4258c2bbaee
025cf4258c2bbaee
025cf4258c2bbaee
025cf4258c2bbaee
025cf4258c2bbaee
025cf4258c2bbaee
025cf4258c2bbaee
025cf4258c2bbaee
d0c642e46297dd1d
d0c642e46297dd1d
d0c642e46297dd1d
d0c642e46297dd1d
d0c642e46297dd1d
d0c642e46297dd1d
d0c642e46297dd1d
d0c642e46297dd1d
ff16c885e3ac01dc
ff16c885e3ac01dc
ff16c885e3ac01dc
ff16c885e3ac01dc
ff16c885e3ac01dc
ff16c885e3ac01dc
ff16c885e3ac01dc
ff16c885e3ac01dc
bd3517c066f9d0c8
bd3517c066f9d0c8
bd3517c066f9d0c8
bd3517c066f9d0c8
bd3517c066f9d0c8
bd3517c066f9d0c8
bd3517c066f9d0c8
bd3517c066f9d0c8
a819c9332be5f517
a819c9332be5f517
a819c9332be5f517
a819c9332be5f517
a819c9332be5f517
a819c9332be5f517
a819c9332be5f517
a819c9332be5f517
f8f5084d15370f1d
f8f5084d15370f1d
f8f5084d15370f1d
f8f5084d15370f1d
f8f5084d15370f1d
f8f5084d15370f1d
f8f5084d15370f1d
f8f5084d15370f1d
da67bd9bf0f55a5b
da67bd9bf0f55a5b
da67bd9bf0f55a5b
da67bd9bf0f55a5b
da67bd9bf0f55a5b
da67bd9bf0f55a5b
da67bd9bf0f55a5b
da67bd9bf0f55a5b
f70141e464181de0
f70141e464181de0
f70141e464181de0
f70141e464181de0
f70141e464181de0
f70141e464181de0
f70141e464181de0
f70141e464181de0
b303ef6edd210406
b303ef6edd210406
b303ef6edd210406
b303ef6edd210406
b303ef6edd210406
b303ef6edd210406
b303ef6edd210406
b303ef6edd210406
ba0e2e9fded2e9f7
ba0e2e9fded2e9f7
ba0e2e9fded2e9f7
ba0e2e9fded2e9f7
ba0e2e9fded2e9f7
ba0e2e9fded2e9f7
ba0e2e9fded2e9f7
ba0e2e9fded2e9f7
12e9f769ec0de555
12e9f769ec0de555
12e9f769ec0de555
12e9f769ec0de555
12e9f769ec0de555
12e9f769ec0de555
12e9f769ec0de555
12e9f769ec0de555
64d9b7424d8f39d5
64d9b7424d8f39d5
64d9b7424d8f39d5
64d9b7424d8f39d5
64d9b7424d8f39d5
64d9b7424d8f39d5
64d9b7424d8f39d5
64d9b7424d8f39d5
2c9af4173ade903b
2c9af4173ade903b
2c9af4173ade903b
2c9af4173ade903b
2c9af4173ade903b
2c9af4173ade903b
2c9af4173ade903b
2c9af4173ade903b
35bcd7e7d45d0512
35bcd7e7d45d0512
35bcd7e7d45d0512
35bcd7e7d45d0512
35bcd7e7d45d0512
35bcd7e7d45d0512
35bcd7e7d45d0512
35bcd7e7d45d0512
fc3f5266ace33623
fc3f5266ace33623
fc3f5266ace33623
fc3f5266ace33623
fc3f5266ace33623
fc3f5266ace33623
fc3f5266ace33623
fc3f5266ace33623
243ac1f3cc46c31b
243ac1f3cc46c31b
243ac1f3cc46c31b
243ac1f3cc46c31b
243ac1f3cc46c31b
243ac1f3cc46c31b
243ac1f3cc46c31b
243ac1f3cc46c31b
bae30c05e129bce2
bae30c05e129bce2
bae30c05e129bce2
bae30c05e129bce2
bae30c05e129bce2
bae30c05e129bce2
bae30c05e129bce2
bae30c05e129bce2
3dfdeae9ff5adef1
3dfdeae9ff5adef1
3dfdeae9ff5adef1
3dfdeae9ff5adef1
3dfdeae9ff5adef1
3dfdeae9ff5adef1
3dfdeae9ff5adef1
3dfdeae9ff5adef1
31c01c1a652c36ee
31c01c1a652c36ee
31c01c1a652c36ee
31c01c1a652c36ee
31c01c1a652c36ee
31c01c1a652c36ee
31c01c1a652c36ee
31c01c1a652c36ee
def845fd7734faeb
def845fd7734faeb
def845fd7734faeb
def845fd7734faeb
def845fd7734faeb
def845fd7734faeb
def845fd7734faeb
def845fd7734faeb
56002cf5274011b8
56002cf5274011b8
56002cf5274011b8
56002cf5274011b8
56002cf5274011b8
56002cf5274011b8
56002cf5274011b8
56002cf5274011b8
92227ff22d121d1a
92227ff22d121d1a
92227ff22d121d1a
92227ff22d121d1a
92227ff22d121d1a
92227ff22d121d1a
92227ff22d121d1a
92227ff22d121d1a
333b37fb5b1b01a1
333b37fb5b1b01a1
333b37fb5b1b01a1
333b37fb5b1b01a1
333b37fb5b1b01a1
333b37fb5b1b01a1
333b37fb5b1b01a1
333b37fb5b1b01a1
e4f5ea3a601a590f
e4f5ea3a601a590f
e4f5ea3a601a590f
e4f5ea3a601a590f
e4f5ea3a601a590f
e4f5ea3a601a590f
e4f5ea3a601a590f
e4f5ea3a601a590f
8ca46fe9d303cac5
8ca46fe9d303cac5
8ca46fe9d303cac5
8ca46fe9d303cac5
8ca46fe9d303cac5
8ca46fe9d303cac5
8ca46fe9d303cac5
8ca46fe9d303cac5
1d1fef14074febef
1d1fef14074febef
1d1fef14074febef
1d1fef14074febef
1d1fef14074febef
1d1fef14074febef
1d1fef14074febef
1d1fef14074febef
73f4f0b7af0c67a9
73f4f0b7af0c67a9
73f4f0b7af0c67a9
73f4f0b7af0c67a9
73f4f0b7af0c67a9
73f4f0b7af0c67a9
73f4f0b7af0c67a9
73f4f0b7af0c67a9
3f3c66c1cf0f093b
3f3c66c1cf0f093b
3f3c66c1cf0f093b
3f3c66c1cf0f093b
3f3c66c1cf0f093b
3f3c66c1cf0f093b
3f3c66c1cf0f093b
3f3c66c1cf0f093b
00a881d8023c04f1
00a881d8023c04f1
00a881d8023c04f1
00a881d8023c04f1
00a881d8023c04f1
00a881d8023c04f1
00a881d8023c04f1
00a881d8023c04f1
a3ff0957f2431cf0
a3ff0957f2431cf0
a3ff0957f2431cf0
a3ff0957f2431cf0
a3ff0957f2431cf0
a3ff0957f2431cf0
a3ff0957f2431cf0
a3ff0957f2431cf0
273e053fe3acc0f2
053fe3acc0f2b0a3
273e053fe3acc0f2
053fe3acc0f2b0a3
273e053fe3acc0f2
053fe3acc0f2b0a3
273e053fe3acc0f2
053fe3acc0f2b0a3
b0a3fb9e9521c346
fb9e9521c346d3ad
b0a3fb9e9521c346
fb9e9521c346d3ad
b0a3fb9e9521c346
fb9e9521c346d3ad
b0a3fb9e9521c346
fb9e9521c346d3ad
d3ad0ff9b3f5a2c1
0ff9b3f5a2c1cb51
d3ad0ff9b3f5a2c1
0ff9b3f5a2c1cb51
d3ad0ff9b3f5a2c1
0ff9b3f5a2c1cb51
d3ad0ff9b3f5a2c1
0ff9b3f5a2c1cb51
cb5138ff7f06dc5d
38ff7f06dc5df739
cb5138ff7f06dc5d
38ff7f06dc5df739
cb5138ff7f06dc5d
38ff7f06dc5df739
cb5138ff7f06dc5d
38ff7f06dc5df739
f739e4e3ee304b46
e4e3ee304b46ca3d
f739e4e3ee304b46
e4e3ee304b46ca3d
f739e4e3ee304b46
e4e3ee304b46ca3d
f739e4e3ee304b46
e4e3ee304b46ca3d
ca3d1719ca00fc33
1719ca00fc33cef6
ca3d1719ca00fc33
1719ca00fc33cef6
ca3d1719ca00fc33
1719ca00fc33cef6
ca3d1719ca00fc33
1719ca00fc33cef6
cef6234bbbf8d14c
234bbbf8d14c3a2a
cef6234bbbf8d14c
234bbbf8d14c3a2a
cef6234bbbf8d14c
234bbbf8d14c3a2a
cef6234bbbf8d14c
234bbbf8d14c3a2a
3a2a20d7e681273e
20d7e6c6b5818181
3a2a20d7e681273e
20d7e6c6b5818181
3a2a20d7e681273e
20d7e6c6b5818181
3a2a20d7e681273e
20d7e6c6b5818181
273e053fe3acc0f2
053fe3acc0f2b0a3
273e053fe3acc0f2
053fe3acc0f2b0a3
273e053fe3acc0f2
053fe3acc0f2b0a3
273e053fe3acc0f2
053fe3acc0f2b0a3
b0a3fb9e9521c346
fb9e9521c346d3ad
b0a3fb9e9521c346
fb9e9521c346d3ad
b0a3fb9e9521c346
fb9e9521c346d3ad
b0a3fb9e9521c346
fb9e9521c346d3ad
d3ad0ff9b3f5a2c1
0ff9b3f5a2c1cb51
d3ad0ff9b3f5a2c1
0ff9b3f5a2c1cb51
d3ad0ff9b3f5a2c1
0ff9b3f5a2c1cb51
d3ad0ff9b3f5a2c1
0ff9b3f5a2c1cb51
cb5138ff7f06dc5d
38ff7f06dc5df739
cb5138ff7f06dc5d
38ff7f06dc5df739
cb5138ff7f06dc5d
38ff7f06dc5df739
cb5138ff7f06dc5d
38ff7f06dc5df739
f739e4e3ee304b46
e4e3ee304b46ca3d
f739e4e3ee304b46
e4e3ee304b46ca3d
f739e4e3ee304b46
e4e3ee304b46ca3d
f739e4e3ee304b46
e4e3ee304b46ca3d
ca3d1719ca00fc33
1719ca00fc33cef6
ca3d1719ca00fc33
1719ca00fc33cef6
ca3d1719ca00fc33
1719ca00fc33cef6
ca3d1719ca00fc33
1719ca00fc33cef6
cef6234bbbf8d14c
234bbbf8d14c3a2a
cef6234bbbf8d14c
234bbbf8d14c3a2a
cef6234bbbf8d14c
234bbbf8d14c3a2a
cef6234bbbf8d14c
234bbbf8d14c3a2a
3a2a20d7e681273e
20d7e6c6b5818181
3a2a20d7e681273e
20d7e6c6b5818181
3a2a20d7e681273e
20d7e6c6b5818181
3a2a20d7e681273e
20d7e6c6b5818181
273e053fe3acc0f2
053fe3acc0f2b0a3
273e053fe3acc0f2
053fe3acc0f2b0a3
273e053fe3acc0f2
053fe3acc0f2b0a3
273e053fe3acc0f2
053fe3acc0f2b0a3
b0a3fb9e9521c346
fb9e9521c346d3ad
b0a3fb9e9521c346
fb9e9521c346d3ad
b0a3fb9e9521c346
fb9e9521c346d3ad
b0a3fb9e9521c346
fb9e9521c346d3ad
d3ad0ff9b3f5a2c1
0ff9b3f5a2c1cb51
d3ad0ff9b3f5a2c1
0ff9b3f5a2c1cb51
d3ad0ff9b3f5a2c1
0ff9b3f5a2c1cb51
d3ad0ff9b3f5a2c1
0ff9b3f5a2c1cb51
cb5138ff7f06dc5d
38ff7f06dc5df739
cb5138ff7f06dc5d
38ff7f06dc5df739
cb5138ff7f06dc5d
38ff7f06dc5df739
cb5138ff7f06dc5d
38ff7f06dc5df739
f739e4e3ee304b46
e4e3ee304b46ca3d
f739e4e3ee304b46
e4e3ee304b46ca3d
f739e4e3ee304b46
e4e3ee304b46ca3d
f739e4e3ee304b46
e4e3ee304b46ca3d
ca3d1719ca00fc33
1719ca00fc33cef6
ca3d1719ca00fc33
1719ca00fc33cef6
ca3d1719ca00fc33
1719ca00fc33cef6
ca3d1719ca00fc33
1719ca00fc33cef6
cef6234bbbf8d14c
234bbbf8d14c3a2a
cef6234bbbf8d14c
234bbbf8d14c3a2a
cef6234bbbf8d14c
234bbbf8d14c3a2a
cef6234bbbf8d14c
234bbbf8d14c3a2a
3a2a20d7e681273e
20d7e6c6b5818181
3a2a20d7e681273e
20d7e6c6b5818181
3a2a20d7e681273e
20d7e6c6b5818181
3a2a20d7e681273e
20d7e6c6b5818181
273e053fe3acc0f2
053fe3acc0f2b0a3
273e053fe3acc0f2
053fe3acc0f2b0a3
273e053fe3acc0f2
053fe3acc0f2b0a3
273e053fe3acc0f2
053fe3acc0f2b0a3
b0a3fb9e9521c346
fb9e9521c346d3ad
b0a3fb9e9521c346
fb9e9521c346d3ad
b0a3fb9e9521c346
fb9e9521c346d3ad
b0a3fb9e9521c346
fb9e9521c346d3ad
d3ad0ff9b3f5a2c1
0ff9b3f5a2c1cb51
d3ad0ff9b3f5a2c1
0ff9b3f5a2c1cb51
d3ad0ff9b3f5a2c1
0ff9b3f5a2c1cb51
d3ad0ff9b3f5a2c1
0ff9b3f5a2c1cb51
cb5138ff7f06dc5d
38ff7f06dc5df739
cb5138ff7f06dc5d
38ff7f06dc5df739
cb5138ff7f06dc5d
38ff7f06dc5df739
cb5138ff7f06dc5d
38ff7f06dc5df739
f739e4e3ee304b46
e4e3ee304b46ca3d
f739e4e3ee304b46
e4e3ee304b46ca3d
f739e4e3ee304b46
e4e3ee304b46ca3d
f739e4e3ee304b46
e4e3ee304b46ca3d
ca3d1719ca00fc33
1719ca00fc33cef6
ca3d1719ca00fc33
1719ca00fc33cef6
ca3d1719ca00fc33
1719ca00fc33cef6
ca3d1719ca00fc33
1719ca00fc33cef6
cef6234bbbf8d14c
234bbbf8d14c3a2a
cef6234bbbf8d14c
234bbbf8d14c3a2a
cef6234bbbf8d14c
234bbbf8d14c3a2a
cef6234bbbf8d14c
234bbbf8d14c3a2a
3a2a20d7e681273e
20d7e6c6b5818181
3a2a20d7e681273e
20d7e6c6b5818181
3a2a20d7e681273e
20d7e6c6b5818181
3a2a20d7e681273e
20d7e6c6b5818181
273e053fe3acc0f2
053fe3acc0f2b0a3
273e053fe3acc0f2
053fe3acc0f2b0a3
273e053fe3acc0f2
053fe3acc0f2b0a3
273e053fe3acc0f2
053fe3acc0f2b0a3
b0a3fb9e9521c346
fb9e9521c346d3ad
b0a3fb9e9521c346
fb9e9521c346d3ad
b0a3fb9e9521c346
fb9e9521c346d3ad
b0a3fb9e9521c346
fb9e9521c346d3ad
d3ad0ff9b3f5a2c1
0ff9b3f5a2c1cb51
d3ad0ff9b3f5a2c1
0ff9b3f5a2c1cb51
d3ad0ff9b3f5a2c1
0ff9b3f5a2c1cb51
d3ad0ff9b3f5a2c1
0ff9b3f5a2c1cb51
cb5138ff7f06dc5d
38ff7f06dc5df739
cb5138ff7f06dc5d
38ff7f06dc5df739
cb5138ff7f06dc5d
38ff7f06dc5df739
cb5138ff7f06dc5d
38ff7f06dc5df739
f739e4e3ee304b46
e4e3ee304b46ca3d
f739e4e3ee304b46
e4e3ee304b46ca3d
f739e4e3ee304b46
e4e3ee304b46ca3d
f739e4e3ee304b46
e4e3ee304b46ca3d
ca3d1719ca00fc33
1719ca00fc33cef6
ca3d1719ca00fc33
1719ca00fc33cef6
ca3d1719ca00fc33
1719ca00fc33cef6
ca3d1719ca00fc33
1719ca00fc33cef6
cef6234bbbf8d14c
234bbbf8d14c3a2a
cef6234bbbf8d14c
234bbbf8d14c3a2a
cef6234bbbf8d14c
234bbbf8d14c3a2a
cef6234bbbf8d14c
234bbbf8d14c3a2a
3a2a20d7e681273e
20d7e6c6b5818181
3a2a20d7e681273e
20d7e6c6b5818181
3a2a20d7e681273e
20d7e6c6b5818181
3a2a20d7e681273e
20d7e6c6b5818181
273e053fe3acc0f2
053fe3acc0f2b0a3
273e053fe3acc0f2
053fe3acc0f2b0a3
273e053fe3acc0f2
053fe3acc0f2b0a3
273e053fe3acc0f2
053fe3acc0f2b0a3
b0a3fb9e9521c346
fb9e9521c346d3ad
b0a3fb9e9521c346
fb9e9521c346d3ad
b0a3fb9e9521c346
fb9e9521c346d3ad
b0a3fb9e9521c346
fb9e9521c346d3ad
d3ad0ff9b3f5a2c1
0ff9b3f5a2c1cb51
d3ad0ff9b3f5a2c1
0ff9b3f5a2c1cb51
d3ad0ff9b3f5a2c1
0ff9b3f5a2c1cb51
d3ad0ff9b3f5a2c1
0ff9b3f5a2c1cb51
cb5138ff7f06dc5d
38ff7f06dc5df739
cb5138ff7f06dc5d
38ff7f06dc5df739
cb5138ff7f06dc5d
38ff7f06dc5df739
cb5138ff7f06dc5d
38ff7f06dc5df739
f739e4e3ee304b46
e4e3ee304b46ca3d
f739e4e3ee304b46
e4e3ee304b46ca3d
f739e4e3ee304b46
e4e3ee304b46ca3d
f739e4e3ee304b46
e4e3ee304b46ca3d
ca3d1719ca00fc33
1719ca00fc33cef6
ca3d1719ca00fc33
1719ca00fc33cef6
ca3d1719ca00fc33
1719ca00fc33cef6
ca3d1719ca00fc33
1719ca00fc33cef6
cef6234bbbf8d14c
234bbbf8d14c3a2a
cef6234bbbf8d14c
234bbbf8d14c3a2a
cef6234bbbf8d14c
234bbbf8d14c3a2a
cef6234bbbf8d14c
234bbbf8d14c3a2a
3a2a20d7e681273e
20d7e6c6b5818181
3a2a20d7e681273e
20d7e6c6b5818181
3a2a20d7e681273e
20d7e6c6b5818181
3a2a20d7e681273e
20d7e6c6b5818181
273e053fe3acc0f2
053fe3acc0f2b0a3
273e053fe3acc0f2
053fe3acc0f2b0a3
273e053fe3acc0f2
053fe3acc0f2b0a3
273e053fe3acc0f2
053fe3acc0f2b0a3
b0a3fb9e9521c346
fb9e9521c346d3ad
b0a3fb9e9521c346
fb9e9521c346d3ad
b0a3fb9e9521c346
fb9e9521c346d3ad
b0a3fb9e9521c346
fb9e9521c346d3ad
d3ad0ff9b3f5a2c1
0ff9b3f5a2c1cb51
d3ad0ff9b3f5a2c1
0ff9b3f5a2c1cb51
d3ad0ff9b3f5a2c1
0ff9b3f5a2c1cb51
d3ad0ff9b3f5a2c1
0ff9b3f5a2c1cb51
cb5138ff7f06dc5d
38ff7f06dc5df739
cb5138ff7f06dc5d
38ff7f06dc5df739
cb5138ff7f06dc5d
38ff7f06dc5df739
cb5138ff7f06dc5d
38ff7f06dc5df739
f739e4e3ee304b46
e4e3ee304b46ca3d
f739e4e3ee304b46
e4e3ee304b46ca3d
f739e4e3ee304b46
e4e3ee304b46ca3d
f739e4e3ee304b46
e4e3ee304b46ca3d
ca3d1719ca00fc33
1719ca00fc33cef6
ca3d1719ca00fc33
1719ca00fc33cef6
ca3d1719ca00fc33
1719ca00fc33cef6
ca3d1719ca00fc33
1719ca00fc33cef6
cef6234bbbf8d14c
234bbbf8d14c3a2a
cef6234bbbf8d14c
234bbbf8d14c3a2a
cef6234bbbf8d14c
234bbbf8d14c3a2a
cef6234bbbf8d14c
234bbbf8d14c3a2a
3a2a20d7e681273e
20d7e6c6b5818181
3a2a20d7e681273e
20d7e6c6b5818181
3a2a20d7e681273e
20d7e6c6b5818181
3a2a20d7e681273e
20d7e6c6b5818181
273e053fe3acc0f2
053fe3acc0f2b0a3
273e053fe3acc0f2
053fe3acc0f2b0a3
273e053fe3acc0f2
053fe3acc0f2b0a3
273e053fe3acc0f2
053fe3acc0f2b0a3
b0a3fb9e9521c346
fb9e9521c346d3ad
b0a3fb9e9521c346
fb9e9521c346d3ad
b0a3fb9e9521c346
fb9e9521c346d3ad
b0a3fb9e9521c346
fb9e9521c346d3ad
d3ad0ff9b3f5a2c1
0ff9b3f5a2c1cb51
d3ad0ff9b3f5a2c1
0ff9b3f5a2c1cb51
d3ad0ff9b3f5a2c1
0ff9b3f5a2c1cb51
d3ad0ff9b3f5a2c1
0ff9b3f5a2c1cb51
cb5138ff7f06dc5d
38ff7f06dc5df739
cb5138ff7f06dc5d
38ff7f06dc5df739
cb5138ff7f06dc5d
38ff7f06dc5df739
cb5138ff7f06dc5d
38ff7f06dc5df739
f739e4e3ee304b46
e4e3ee304b46ca3d
f739e4e3ee304b46
e4e3ee304b46ca3d
f739e4e3ee304b46
e4e3ee304b46ca3d
f739e4e3ee304b46
e4e3ee304b46ca3d
ca3d1719ca00fc33
1719ca00fc33cef6
ca3d1719ca00fc33
1719ca00fc33cef6
ca3d1719ca00fc33
1719ca00fc33cef6
ca3d1719ca00fc33
1719ca00fc33cef6
cef6234bbbf8d14c
234bbbf8d14c3a2a
cef6234bbbf8d14c
234bbbf8d14c3a2a
cef6234bbbf8d14c
234bbbf8d14c3a2a
cef6234bbbf8d14c
234bbbf8d14c3a2a
3a2a20d7e681273e
20d7e6c6b5818181
3a2a20d7e681273e
20d7e6c6b5818181
3a2a20d7e681273e
20d7e6c6b5818181
3a2a20d7e681273e
20d7e6c6b5818181
2f0adeae25c30b28
bcbc2f0adeae25c3
2f0adeae25c30b28
bcbc2f0adeae25c3
2f0adeae25c30b28
bcbc2f0adeae25c3
2f0adeae25c30b28
bcbc2f0adeae25c3
6efd21036af31863
0b286efd21036af3
6efd21036af31863
0b286efd21036af3
6efd21036af31863
0b286efd21036af3
6efd21036af31863
0b286efd21036af3
07bb4170e66debec
186307bb4170e66d
07bb4170e66debec
186307bb4170e66d
07bb4170e66debec
186307bb4170e66d
07bb4170e66debec
186307bb4170e66d
7d372dd22c01321e
ebec7d372dd22c01
7d372dd22c01321e
ebec7d372dd22c01
7d372dd22c01321e
ebec7d372dd22c01
7d372dd22c01321e
ebec7d372dd22c01
1cd007f14ee70e5a
321e1cd007f14ee7
1cd007f14ee70e5a
321e1cd007f14ee7
1cd007f14ee70e5a
321e1cd007f14ee7
1cd007f14ee70e5a
321e1cd007f14ee7
ec03d50841d44626
0e5aec03d50841d4
ec03d50841d44626
0e5aec03d50841d4
ec03d50841d44626
0e5aec03d50841d4
ec03d50841d44626
0e5aec03d50841d4
81c7f0d38c0404a7
462681c7f0d38c04
81c7f0d38c0404a7
462681c7f0d38c04
81c7f0d38c0404a7
462681c7f0d38c04
81c7f0d38c0404a7
462681c7f0d38c04
e23ce3213461f7bc
04a7e23ce3bcbcbc
e23ce3213461f7bc
04a7e23ce3bcbcbc
e23ce3213461f7bc
04a7e23ce3bcbcbc
e23ce3213461f7bc
04a7e23ce3bcbcbc
2f0adeae25c30b28
bcbc2f0adeae25c3
2f0adeae25c30b28
bcbc2f0adeae25c3
2f0adeae25c30b28
bcbc2f0adeae25c3
2f0adeae25c30b28
bcbc2f0adeae25c3
6efd21036af31863
0b286efd21036af3
6efd21036af31863
0b286efd21036af3
6efd21036af31863
0b286efd21036af3
6efd21036af31863
0b286efd21036af3
07bb4170e66debec
186307bb4170e66d
07bb4170e66debec
186307bb4170e66d
07bb4170e66debec
186307bb4170e66d
07bb4170e66debec
186307bb4170e66d
7d372dd22c01321e
ebec7d372dd22c01
7d372dd22c01321e
ebec7d372dd22c01
7d372dd22c01321e
ebec7d372dd22c01
7d372dd22c01321e
ebec7d372dd22c01
1cd007f14ee70e5a
321e1cd007f14ee7
1cd007f14ee70e5a
321e1cd007f14ee7
1cd007f14ee70e5a
321e1cd007f14ee7
1cd007f14ee70e5a
321e1cd007f14ee7
ec03d50841d44626
0e5aec03d50841d4
ec03d50841d44626
0e5aec03d50841d4
ec03d50841d44626
0e5aec03d50841d4
ec03d50841d44626
0e5aec03d50841d4
81c7f0d38c0404a7
462681c7f0d38c04
81c7f0d38c0404a7
462681c7f0d38c04
81c7f0d38c0404a7
462681c7f0d38c04
81c7f0d38c0404a7
462681c7f0d38c04
e23ce3213461f7bc
04a7e23ce3bcbcbc
e23ce3213461f7bc
04a7e23ce3bcbcbc
e23ce3213461f7bc
04a7e23ce3bcbcbc
e23ce3213461f7bc
04a7e23ce3bcbcbc
2f0adeae25c30b28
bcbc2f0adeae25c3
2f0adeae25c30b28
bcbc2f0adeae25c3
2f0adeae25c30b28
bcbc2f0adeae25c3
2f0adeae25c30b28
bcbc2f0adeae25c3
6efd21036af31863
0b286efd21036af3
6efd21036af31863
0b286efd21036af3
6efd21036af31863
0b286efd21036af3
6efd21036af31863
0b286efd21036af3
07bb4170e66debec
186307bb4170e66d
07bb4170e66debec
186307bb4170e66d
07bb4170e66debec
186307bb4170e66d
07bb4170e66debec
186307bb4170e66d
7d372dd22c01321e
ebec7d372dd22c01
7d372dd22c01321e
ebec7d372dd22c01
7d372dd22c01321e
ebec7d372dd22c01
7d372dd22c01321e
ebec7d372dd22c01
1cd007f14ee70e5a
321e1cd007f14ee7
1cd007f14ee70e5a
321e1cd007f14ee7
1cd007f14ee70e5a
321e1cd007f14ee7
1cd007f14ee70e5a
321e1cd007f14ee7
ec03d50841d44626
0e5aec03d50841d4
ec03d50841d44626
0e5aec03d50841d4
ec03d50841d44626
0e5aec03d50841d4
ec03d50841d44626
0e5aec03d50841d4
81c7f0d38c0404a7
462681c7f0d38c04
81c7f0d38c0404a7
462681c7f0d38c04
81c7f0d38c0404a7
462681c7f0d38c04
81c7f0d38c0404a7
462681c7f0d38c04
e23ce3213461f7bc
04a7e23ce3bcbcbc
e23ce3213461f7bc
04a7e23ce3bcbcbc
e23ce3213461f7bc
04a7e23ce3bcbcbc
e23ce3213461f7bc
04a7e23ce3bcbcbc
2f0adeae25c30b28
bcbc2f0adeae25c3
2f0adeae25c30b28
bcbc2f0adeae25c3
2f0adeae25c30b28
bcbc2f0adeae25c3
2f0adeae25c30b28
bcbc2f0adeae25c3
6efd21036af31863
0b286efd21036af3
6efd21036af31863
0b286efd21036af3
6efd21036af31863
0b286efd21036af3
6efd21036af31863
0b286efd21036af3
07bb4170e66debec
186307bb4170e66d
07bb4170e66debec
186307bb4170e66d
07bb4170e66debec
186307bb4170e66d
07bb4170e66debec
186307bb4170e66d
7d372dd22c01321e
ebec7d372dd22c01
7d372dd22c01321e
ebec7d372dd22c01
7d372dd22c01321e
ebec7d372dd22c01
7d372dd22c01321e
ebec7d372dd22c01
1cd007f14ee70e5a
321e1cd007f14ee7
1cd007f14ee70e5a
321e1cd007f14ee7
1cd007f14ee70e5a
321e1cd007f14ee7
1cd007f14ee70e5a
321e1cd007f14ee7
ec03d50841d44626
0e5aec03d50841d4
ec03d50841d44626
0e5aec03d50841d4
ec03d50841d44626
0e5aec03d50841d4
ec03d50841d44626
0e5aec03d50841d4
81c7f0d38c0404a7
462681c7f0d38c04
81c7f0d38c0404a7
462681c7f0d38c04
81c7f0d38c0404a7
462681c7f0d38c04
81c7f0d38c0404a7
462681c7f0d38c04
e23ce3213461f7bc
04a7e23ce3bcbcbc
e23ce3213461f7bc
04a7e23ce3bcbcbc
e23ce3213461f7bc
04a7e23ce3bcbcbc
e23ce3213461f7bc
04a7e23ce3bcbcbc
2f0adeae25c30b28
bcbc2f0adeae25c3
2f0adeae25c30b28
bcbc2f0adeae25c3
2f0adeae25c30b28
bcbc2f0adeae25c3
2f0adeae25c30b28
bcbc2f0adeae25c3
6efd21036af31863
0b286efd21036af3
6efd21036af31863
0b286efd21036af3
6efd21036af31863
0b286efd21036af3
6efd21036af31863
0b286efd21036af3
07bb4170e66debec
186307bb4170e66d
07bb4170e66debec
186307bb4170e66d
07bb4170e66debec
186307bb4170e66d
07bb4170e66debec
186307bb4170e66d
7d372dd22c01321e
ebec7d372dd22c01
7d372dd22c01321e
ebec7d372dd22c01
7d372dd22c01321e
ebec7d372dd22c01
7d372dd22c01321e
ebec7d372dd22c01
1cd007f14ee70e5a
321e1cd007f14ee7
1cd007f14ee70e5a
321e1cd007f14ee7
1cd007f14ee70e5a
321e1cd007f14ee7
1cd007f14ee70e5a
321e1cd007f14ee7
ec03d50841d44626
0e5aec03d50841d4
ec03d50841d44626
0e5aec03d50841d4
ec03d50841d44626
0e5aec03d50841d4
ec03d50841d44626
0e5aec03d50841d4
81c7f0d38c0404a7
462681c7f0d38c04
81c7f0d38c0404a7
462681c7f0d38c04
81c7f0d38c0404a7
462681c7f0d38c04
81c7f0d38c0404a7
462681c7f0d38c04
e23ce3213461f7bc
04a7e23ce3bcbcbc
e23ce3213461f7bc
04a7e23ce3bcbcbc
e23ce3213461f7bc
04a7e23ce3bcbcbc
e23ce3213461f7bc
04a7e23ce3bcbcbc
2f0adeae25c30b28
bcbc2f0adeae25c3
2f0adeae25c30b28
bcbc2f0adeae25c3
2f0adeae25c30b28
bcbc2f0adeae25c3
2f0adeae25c30b28
bcbc2f0adeae25c3
6efd21036af31863
0b286efd21036af3
6efd21036af31863
0b286efd21036af3
6efd21036af31863
0b286efd21036af3
6efd21036af31863
0b286efd21036af3
07bb4170e66debec
186307bb4170e66d
07bb4170e66debec
186307bb4170e66d
07bb4170e66debec
186307bb4170e66d
07bb4170e66debec
186307bb4170e66d
7d372dd22c01321e
ebec7d372dd22c01
7d372dd22c01321e
ebec7d372dd22c01
7d372dd22c01321e
ebec7d372dd22c01
7d372dd22c01321e
ebec7d372dd22c01
1cd007f14ee70e5a
321e1cd007f14ee7
1cd007f14ee70e5a
321e1cd007f14ee7
1cd007f14ee70e5a
321e1cd007f14ee7
1cd007f14ee70e5a
321e1cd007f14ee7
ec03d50841d44626
0e5aec03d50841d4
ec03d50841d44626
0e5aec03d50841d4
ec03d50841d44626
0e5aec03d50841d4
ec03d50841d44626
0e5aec03d50841d4
81c7f0d38c0404a7
462681c7f0d38c04
81c7f0d38c0404a7
462681c7f0d38c04
81c7f0d38c0404a7
462681c7f0d38c04
81c7f0d38c0404a7
462681c7f0d38c04
e23ce3213461f7bc
04a7e23ce3bcbcbc
e23ce3213461f7bc
04a7e23ce3bcbcbc
e23ce3213461f7bc
04a7e23ce3bcbcbc
e23ce3213461f7bc
04a7e23ce3bcbcbc
2f0adeae25c30b28
bcbc2f0adeae25c3
2f0adeae25c30b28
bcbc2f0adeae25c3
2f0adeae25c30b28
bcbc2f0adeae25c3
2f0adeae25c30b28
bcbc2f0adeae25c3
6efd21036af31863
0b286efd21036af3
6efd21036af31863
0b286efd21036af3
6efd21036af31863
0b286efd21036af3
6efd21036af31863
0b286efd21036af3
07bb4170e66debec
186307bb4170e66d
07bb4170e66debec
186307bb4170e66d
07bb4170e66debec
186307bb4170e66d
07bb4170e66debec
186307bb4170e66d
7d372dd22c01321e
ebec7d372dd22c01
7d372dd22c01321e
ebec7d372dd22c01
7d372dd22c01321e
ebec7d372dd22c01
7d372dd22c01321e
ebec7d372dd22c01
1cd007f14ee70e5a
321e1cd007f14ee7
1cd007f14ee70e5a
321e1cd007f14ee7
1cd007f14ee70e5a
321e1cd007f14ee7
1cd007f14ee70e5a
321e1cd007f14ee7
ec03d50841d44626
0e5aec03d50841d4
ec03d50841d44626
0e5aec03d50841d4
ec03d50841d44626
0e5aec03d50841d4
ec03d50841d44626
0e5aec03d50841d4
81c7f0d38c0404a7
462681c7f0d38c04
81c7f0d38c0404a7
462681c7f0d38c04
81c7f0d38c0404a7
462681c7f0d38c04
81c7f0d38c0404a7
462681c7f0d38c04
e23ce3213461f7bc
04a7e23ce3bcbcbc
e23ce3213461f7bc
04a7e23ce3bcbcbc
e23ce3213461f7bc
04a7e23ce3bcbcbc
e23ce3213461f7bc
04a7e23ce3bcbcbc
2f0adeae25c30b28
bcbc2f0adeae25c3
2f0adeae25c30b28
bcbc2f0adeae25c3
2f0adeae25c30b28
bcbc2f0adeae25c3
2f0adeae25c30b28
bcbc2f0adeae25c3
6efd21036af31863
0b286efd21036af3
6efd21036af31863
0b286efd21036af3
6efd21036af31863
0b286efd21036af3
6efd21036af31863
0b286efd21036af3
07bb4170e66debec
186307bb4170e66d
07bb4170e66debec
186307bb4170e66d
07bb4170e66debec
186307bb4170e66d
07bb4170e66debec
186307bb4170e66d
7d372dd22c01321e
ebec7d372dd22c01
7d372dd22c01321e
ebec7d372dd22c01
7d372dd22c01321e
ebec7d372dd22c01
7d372dd22c01321e
ebec7d372dd22c01
1cd007f14ee70e5a
321e1cd007f14ee7
1cd007f14ee70e5a
321e1cd007f14ee7
1cd007f14ee70e5a
321e1cd007f14ee7
1cd007f14ee70e5a
321e1cd007f14ee7
ec03d50841d44626
0e5aec03d50841d4
ec03d50841d44626
0e5aec03d50841d4
ec03d50841d44626
0e5aec03d50841d4
ec03d50841d44626
0e5aec03d50841d4
81c7f0d38c0404a7
462681c7f0d38c04
81c7f0d38c0404a7
462681c7f0d38c04
81c7f0d38c0404a7
462681c7f0d38c04
81c7f0d38c0404a7
462681c7f0d38c04
e23ce3213461f7bc
04a7e23ce3bcbcbc
e23ce3213461f7bc
04a7e23ce3bcbcbc
e23ce3213461f7bc
04a7e23ce3bcbcbc
e23ce3213461f7bc
04a7e23ce3bcbcbc
5bfcb511c9431ea3
5bfcb511c9431ea3
5bfcb511c9431ea3
5bfcb511c9431ea3
5bfcb511c9431ea3
5bfcb511c9431ea3
5bfcb511c9431ea3
5bfcb511c9431ea3
36fdb6092cfd43f8
36fdb6092cfd43f8
36fdb6092cfd43f8
36fdb6092cfd43f8
36fdb6092cfd43f8
36fdb6092cfd43f8
36fdb6092cfd43f8
36fdb6092cfd43f8
f6d2e200699a3a09
f6d2e200699a3a09
f6d2e200699a3a09
f6d2e200699a3a09
f6d2e200699a3a09
f6d2e200699a3a09
f6d2e200699a3a09
f6d2e200699a3a09
43df3a780d28e417
43df3a780d28e417
43df3a780d28e417
43df3a780d28e417
43df3a780d28e417
43df3a780d28e417
43df3a780d28e417
43df3a780d28e417
018704003fe01bc0
018704003fe01bc0
018704003fe01bc0
018704003fe01bc0
018704003fe01bc0
018704003fe01bc0
018704003fe01bc0
018704003fe01bc0
d705f5ef1311ae99
d705f5ef1311ae99
d705f5ef1311ae99
d705f5ef1311ae99
d705f5ef1311ae99
d705f5ef1311ae99
d705f5ef1311ae99
d705f5ef1311ae99
942023efeff616e0
942023efeff616e0
942023efeff616e0
942023efeff616e0
942023efeff616e0
942023efeff616e0
942023efeff616e0
942023efeff616e0
fe9713e7114103f0
fe9713e7114103f0
fe9713e7114103f0
fe9713e7114103f0
fe9713e7114103f0
fe9713e7114103f0
fe9713e7114103f0
fe9713e7114103f0
f7c329a21b269295
f7c329a21b269295
f7c329a21b269295
f7c329a21b269295
f7c329a21b269295
f7c329a21b269295
f7c329a21b269295
f7c329a21b269295
1bd0f91ff89218ea
1bd0f91ff89218ea
1bd0f91ff89218ea
1bd0f91ff89218ea
1bd0f91ff89218ea
1bd0f91ff89218ea
1bd0f91ff89218ea
1bd0f91ff89218ea
ce181f48e01343ef
ce181f48e01343ef
ce181f48e01343ef
ce181f48e01343ef
ce181f48e01343ef
ce181f48e01343ef
ce181f48e01343ef
ce181f48e01343ef
1620609edcc55be6
1620609edcc55be6
1620609edcc55be6
1620609edcc55be6
1620609edcc55be6
1620609edcc55be6
1620609edcc55be6
1620609edcc55be6
f03d1446ad9a97ab
f03d1446ad9a97ab
f03d1446ad9a97ab
f03d1446ad9a97ab
f03d1446ad9a97ab
f03d1446ad9a97ab
f03d1446ad9a97ab
f03d1446ad9a97ab
06feeced61903f0d
06feeced61903f0d
06feeced61903f0d
06feeced61903f0d
06feeced61903f0d
06feeced61903f0d
06feeced61903f0d
06feeced61903f0d
f41ab5fe4a20fa19
f41ab5fe4a20fa19
f41ab5fe4a20fa19
f41ab5fe4a20fa19
f41ab5fe4a20fa19
f41ab5fe4a20fa19
f41ab5fe4a20fa19
f41ab5fe4a20fa19
59fbfec572c39508
59fbfec572c39508
59fbfec572c39508
59fbfec572c39508
59fbfec572c39508
59fbfec572c39508
59fbfec572c39508
59fbfec572c39508
a83bb471210845bc
a83bb471210845bc
a83bb471210845bc
a83bb471210845bc
a83bb471210845bc
a83bb471210845bc
a83bb471210845bc
a83bb471210845bc
43ea026ec4d679fb
43ea026ec4d679fb
43ea026ec4d679fb
43ea026ec4d679fb
43ea026ec4d679fb
43ea026ec4d679fb
43ea026ec4d679fb
43ea026ec4d679fb
078ebed2a15252ed
078ebed2a15252ed
078ebed2a15252ed
078ebed2a15252ed
078ebed2a15252ed
078ebed2a15252ed
078ebed2a15252ed
078ebed2a15252ed
291f6390331da678
291f6390331da678
291f6390331da678
291f6390331da678
291f6390331da678
291f6390331da678
291f6390331da678
291f6390331da678
878722133eef9ff1
878722133eef9ff1
878722133eef9ff1
878722133eef9ff1
878722133eef9ff1
878722133eef9ff1
878722133eef9ff1
878722133eef9ff1
beafb2c927b6a7c9
beafb2c927b6a7c9
beafb2c927b6a7c9
beafb2c927b6a7c9
beafb2c927b6a7c9
beafb2c927b6a7c9
beafb2c927b6a7c9
beafb2c927b6a7c9
12f4cc25a531136c
12f4cc25a531136c
12f4cc25a531136c
12f4cc25a531136c
12f4cc25a531136c
12f4cc25a531136c
12f4cc25a531136c
12f4cc25a531136c
ef10414144b44cf4
ef10414144b44cf4
ef10414144b44cf4
ef10414144b44cf4
ef10414144b44cf4
ef10414144b44cf4
ef10414144b44cf4
ef10414144b44cf4
45e3c22e33d881f3
45e3c22e33d881f3
45e3c22e33d881f3
45e3c22e33d881f3
45e3c22e33d881f3
45e3c22e33d881f3
45e3c22e33d881f3
45e3c22e33d881f3
d4ec27e9d17423f9
d4ec27e9d17423f9
d4ec27e9d17423f9
d4ec27e9d17423f9
d4ec27e9d17423f9
d4ec27e9d17423f9
d4ec27e9d17423f9
d4ec27e9d17423f9
afdf1d9a7ad3784f
afdf1d9a7ad3784f
afdf1d9a7ad3784f
afdf1d9a7ad3784f
afdf1d9a7ad3784f
afdf1d9a7ad3784f
afdf1d9a7ad3784f
afdf1d9a7ad3784f
e11cd6594009012e
e11cd6594009012e
e11cd6594009012e
e11cd6594009012e
e11cd6594009012e
e11cd6594009012e
e11cd6594009012e
e11cd6594009012e
6b261021fe2ac11c
6b261021fe2ac11c
6b261021fe2ac11c
6b261021fe2ac11c
6b261021fe2ac11c
6b261021fe2ac11c
6b261021fe2ac11c
6b261021fe2ac11c
af87a3abec58f712
af87a3abec58f712
af87a3abec58f712
af87a3abec58f712
af87a3abec58f712
af87a3abec58f712
af87a3abec58f712
af87a3abec58f712
05fbf4aa28011e16
05fbf4aa28011e16
05fbf4aa28011e16
05fbf4aa28011e16
05fbf4aa28011e16
05fbf4aa28011e16
05fbf4aa28011e16
05fbf4aa28011e16
a2852712cafc1503
a2852712cafc1503
a2852712cafc1503
a2852712cafc1503
a2852712cafc1503
a2852712cafc1503
a2852712cafc1503
a2852712cafc1503
f7bffda6a9ff19da
f7bffda6a9ff19da
f7bffda6a9ff19da
f7bffda6a9ff19da
f7bffda6a9ff19da
f7bffda6a9ff19da
f7bffda6a9ff19da
f7bffda6a9ff19da
05e122d53bc7a011
05e122d53bc7a011
05e122d53bc7a011
05e122d53bc7a011
05e122d53bc7a011
05e122d53bc7a011
05e122d53bc7a011
05e122d53bc7a011
2ba9dec2bda55308
2ba9dec2bda55308
2ba9dec2bda55308
2ba9dec2bda55308
2ba9dec2bda55308
2ba9dec2bda55308
2ba9dec2bda55308
2ba9dec2bda55308
9cc0f209433a672b
9cc0f209433a672b
9cc0f209433a672b
9cc0f209433a672b
9cc0f209433a672b
9cc0f209433a672b
9cc0f209433a672b
9cc0f209433a672b
185acfd1fb58d619
185acfd1fb58d619
185acfd1fb58d619
185acfd1fb58d619
185acfd1fb58d619
185acfd1fb58d619
185acfd1fb58d619
185acfd1fb58d619
ee6117efd92d29a6
ee6117efd92d29a6
ee6117efd92d29a6
ee6117efd92d29a6
ee6117efd92d29a6
ee6117efd92d29a6
ee6117efd92d29a6
ee6117efd92d29a6
07330705dd6b0745
07330705dd6b0745
07330705dd6b0745
07330705dd6b0745
07330705dd6b0745
07330705dd6b0745
07330705dd6b0745
07330705dd6b0745
156b0d73a3f22007
156b0d73a3f22007
156b0d73a3f22007
156b0d73a3f22007
156b0d73a3f22007
156b0d73a3f22007
156b0d73a3f22007
156b0d73a3f22007
022c016d64bb16d4
022c016d64bb16d4
022c016d64bb16d4
022c016d64bb16d4
022c016d64bb16d4
022c016d64bb16d4
022c016d64bb16d4
022c016d64bb16d4
2ef7240ceaead27f
2ef7240ceaead27f
2ef7240ceaead27f
2ef7240ceaead27f
2ef7240ceaead27f
2ef7240ceaead27f
2ef7240ceaead27f
2ef7240ceaead27f
e6d20fe3bb566bf8
e6d20fe3bb566bf8
e6d20fe3bb566bf8
e6d20fe3bb566bf8
e6d20fe3bb566bf8
e6d20fe3bb566bf8
e6d20fe3bb566bf8
e6d20fe3bb566bf8
0dc71eff1870681f
0dc71eff1870681f
0dc71eff1870681f
0dc71eff1870681f
0dc71eff1870681f
0dc71eff1870681f
0dc71eff1870681f
0dc71eff1870681f
3ddc0f44f3bfc61c
3ddc0f44f3bfc61c
3ddc0f44f3bfc61c
3ddc0f44f3bfc61c
3ddc0f44f3bfc61c
3ddc0f44f3bfc61c
3ddc0f44f3bfc61c
3ddc0f44f3bfc61c
1025e5dccf0e0efe
1025e5dccf0e0efe
1025e5dccf0e0efe
1025e5dccf0e0efe
1025e5dccf0e0efe
1025e5dccf0e0efe
1025e5dccf0e0efe
1025e5dccf0e0efe
64f3f003206b954e
64f3f003206b954e
64f3f003206b954e
64f3f003206b954e
64f3f003206b954e
64f3f003206b954e
64f3f003206b954e
64f3f003206b954e
1569f9b5af06b1f6
1569f9b5af06b1f6
1569f9b5af06b1f6
1569f9b5af06b1f6
1569f9b5af06b1f6
1569f9b5af06b1f6
1569f9b5af06b1f6
1569f9b5af06b1f6
55d80319a9361af3
55d80319a9361af3
55d80319a9361af3
55d80319a9361af3
55d80319a9361af3
55d80319a9361af3
55d80319a9361af3
55d80319a9361af3
2c051a0e30adb40f
2c051a0e30adb40f
2c051a0e30adb40f
2c051a0e30adb40f
2c051a0e30adb40f
2c051a0e30adb40f
2c051a0e30adb40f
2c051a0e30adb40f
71ee1d47a12747cf
71ee1d47a12747cf
71ee1d47a12747cf
71ee1d47a12747cf
71ee1d47a12747cf
71ee1d47a12747cf
71ee1d47a12747cf
71ee1d47a12747cf
f801d6be7b1cdce0
f801d6be7b1cdce0
f801d6be7b1cdce0
f801d6be7b1cdce0
f801d6be7b1cdce0
f801d6be7b1cdce0
f801d6be7b1cdce0
f801d6be7b1cdce0
bc313af5183a1129
bc313af5183a1129
bc313af5183a1129
bc313af5183a1129
bc313af5183a1129
bc313af5183a1129
bc313af5183a1129
bc313af5183a1129
dd1ee0d82f0b15df
dd1ee0d82f0b15df
dd1ee0d82f0b15df
dd1ee0d82f0b15df
dd1ee0d82f0b15df
dd1ee0d82f0b15df
dd1ee0d82f0b15df
dd1ee0d82f0b15df
9fe4d0745f50e493
9fe4d0745f50e493
9fe4d0745f50e493
9fe4d0745f50e493
9fe4d0745f50e493
9fe4d0745f50e493
9fe4d0745f50e493
9fe4d0745f50e493
b8412112a7202dde
b8412112a7202dde
b8412112a7202dde
b8412112a7202dde
b8412112a7202dde
b8412112a7202dde
b8412112a7202dde
b8412112a7202dde
344b5a65db9213e1
344b5a65db9213e1
344b5a65db9213e1
344b5a65db9213e1
344b5a65db9213e1
344b5a65db9213e1
344b5a65db9213e1
344b5a65db9213e1
d32fa95aba064bf5
d32fa95aba064bf5
d32fa95aba064bf5
d32fa95aba064bf5
d32fa95aba064bf5
d32fa95aba064bf5
d32fa95aba064bf5
d32fa95aba064bf5
aeb6bd392fc806ec
aeb6bd392fc806ec
aeb6bd392fc806ec
aeb6bd392fc806ec
aeb6bd392fc806ec
aeb6bd392fc806ec
aeb6bd392fc806ec
aeb6bd392fc806ec
dd0eb04be8ce8c06
dd0eb04be8ce8c06
dd0eb04be8ce8c06
dd0eb04be8ce8c06
dd0eb04be8ce8c06
dd0eb04be8ce8c06
dd0eb04be8ce8c06
dd0eb04be8ce8c06
5186e206e502ef12
5186e206e502ef12
5186e206e502ef12
5186e206e502ef12
5186e206e502ef12
5186e206e502ef12
5186e206e502ef12
5186e206e502ef12
fb219f19e9c46dfc
fb219f19e9c46dfc
fb219f19e9c46dfc
fb219f19e9c46dfc
fb219f19e9c46dfc
fb219f19e9c46dfc
fb219f19e9c46dfc
fb219f19e9c46dfc
02eb0ce81ef7090f
02eb0ce81ef7090f
02eb0ce81ef7090f
02eb0ce81ef7090f
02eb0ce81ef7090f
02eb0ce81ef7090f
02eb0ce81ef7090f
02eb0ce81ef7090f
173b76ce17b98956
173b76ce17b98956
173b76ce17b98956
173b76ce17b98956
173b76ce17b98956
173b76ce17b98956
173b76ce17b98956
173b76ce17b98956
558af5c447a41418
558af5c447a41418
558af5c447a41418
558af5c447a41418
558af5c447a41418
558af5c447a41418
558af5c447a41418
558af5c447a41418
0cf209e110edbc02
0cf209e110edbc02
0cf209e110edbc02
0cf209e110edbc02
0cf209e110edbc02
0cf209e110edbc02
0cf209e110edbc02
0cf209e110edbc02
1ee13fd40a3b9fdc
1ee13fd40a3b9fdc
1ee13fd40a3b9fdc
1ee13fd40a3b9fdc
1ee13fd40a3b9fdc
1ee13fd40a3b9fdc
1ee13fd40a3b9fdc
1ee13fd40a3b9fdc
730119c2c5162f03
730119c2c5162f03
730119c2c5162f03
730119c2c5162f03
730119c2c5162f03
730119c2c5162f03
730119c2c5162f03
730119c2c5162f03
e06139dadf2e19e6
e06139dadf2e19e6
e06139dadf2e19e6
e06139dadf2e19e6
e06139dadf2e19e6
e06139dadf2e19e6
e06139dadf2e19e6
e06139dadf2e19e6
4b9ef826ef223937
4b9ef826ef223937
4b9ef826ef223937
4b9ef826ef223937
4b9ef826ef223937
4b9ef826ef223937
4b9ef826ef223937
4b9ef826ef223937
34f2ab28d5261f51
34f2ab28d5261f51
34f2ab28d5261f51
34f2ab28d5261f51
34f2ab28d5261f51
34f2ab28d5261f51
34f2ab28d5261f51
34f2ab28d5261f51
fb1576e9000e1ab5
fb1576e9000e1ab5
fb1576e9000e1ab5
fb1576e9000e1ab5
fb1576e9000e1ab5
fb1576e9000e1ab5
fb1576e9000e1ab5
fb1576e9000e1ab5
24332a4acb01dead
878724332a4acb01
24332a4acb01dead
878724332a4acb01
24332a4acb01dead
878724332a4acb01
24332a4acb01dead
878724332a4acb01
574d4aca23687fee
dead574d4aca2368
574d4aca23687fee
dead574d4aca2368
574d4aca23687fee
dead574d4aca2368
574d4aca23687fee
dead574d4aca2368
21005ae992572d9f
7fee21005ae99257
21005ae992572d9f
7fee21005ae99257
21005ae992572d9f
7fee21005ae99257
21005ae992572d9f
7fee21005ae99257
fb85efbf2307c0aa
2d9ffb85efbf2307
fb85efbf2307c0aa
2d9ffb85efbf2307
fb85efbf2307c0aa
2d9ffb85efbf2307
fb85efbf2307c0aa
2d9ffb85efbf2307
460a53c38c1f481d
c0aa460a53c38c1f
460a53c38c1f481d
c0aa460a53c38c1f
460a53c38c1f481d
c0aa460a53c38c1f
460a53c38c1f481d
c0aa460a53c38c1f
305818c2dff748f9
481d305818c2dff7
305818c2dff748f9
481d305818c2dff7
305818c2dff748f9
481d305818c2dff7
305818c2dff748f9
481d305818c2dff7
aa392effc8df05df
48f9aa392effc8df
aa392effc8df05df
48f9aa392effc8df
aa392effc8df05df
48f9aa392effc8df
aa392effc8df05df
48f9aa392effc8df
46c9e63822fb1387
05df46c9e6388787
46c9e63822fb1387
05df46c9e6388787
46c9e63822fb1387
05df46c9e6388787
46c9e63822fb1387
05df46c9e6388787
24332a4acb01dead
878724332a4acb01
24332a4acb01dead
878724332a4acb01
24332a4acb01dead
878724332a4acb01
24332a4acb01dead
878724332a4acb01
574d4aca23687fee
dead574d4aca2368
574d4aca23687fee
dead574d4aca2368
574d4aca23687fee
dead574d4aca2368
574d4aca23687fee
dead574d4aca2368
21005ae992572d9f
7fee21005ae99257
21005ae992572d9f
7fee21005ae99257
21005ae992572d9f
7fee21005ae99257
21005ae992572d9f
7fee21005ae99257
fb85efbf2307c0aa
2d9ffb85efbf2307
fb85efbf2307c0aa
2d9ffb85efbf2307
fb85efbf2307c0aa
2d9ffb85efbf2307
fb85efbf2307c0aa
2d9ffb85efbf2307
460a53c38c1f481d
c0aa460a53c38c1f
460a53c38c1f481d
c0aa460a53c38c1f
460a53c38c1f481d
c0aa460a53c38c1f
460a53c38c1f481d
c0aa460a53c38c1f
305818c2dff748f9
481d305818c2dff7
305818c2dff748f9
481d305818c2dff7
305818c2dff748f9
481d305818c2dff7
305818c2dff748f9
481d305818c2dff7
aa392effc8df05df
48f9aa392effc8df
aa392effc8df05df
48f9aa392effc8df
aa392effc8df05df
48f9aa392effc8df
aa392effc8df05df
48f9aa392effc8df
46c9e63822fb1387
05df46c9e6388787
46c9e63822fb1387
05df46c9e6388787
46c9e63822fb1387
05df46c9e6388787
46c9e63822fb1387
05df46c9e6388787
24332a4acb01dead
878724332a4acb01
24332a4acb01dead
878724332a4acb01
24332a4acb01dead
878724332a4acb01
24332a4acb01dead
878724332a4acb01
574d4aca23687fee
dead574d4aca2368
574d4aca23687fee
dead574d4aca2368
574d4aca23687fee
dead574d4aca2368
574d4aca23687fee
dead574d4aca2368
21005ae992572d9f
7fee21005ae99257
21005ae992572d9f
7fee21005ae99257
21005ae992572d9f
7fee21005ae99257
21005ae992572d9f
7fee21005ae99257
fb85efbf2307c0aa
2d9ffb85efbf2307
fb85efbf2307c0aa
2d9ffb85efbf2307
fb85efbf2307c0aa
2d9ffb85efbf2307
fb85efbf2307c0aa
2d9ffb85efbf2307
460a53c38c1f481d
c0aa460a53c38c1f
460a53c38c1f481d
c0aa460a53c38c1f
460a53c38c1f481d
c0aa460a53c38c1f
460a53c38c1f481d
c0aa460a53c38c1f
305818c2dff748f9
481d305818c2dff7
305818c2dff748f9
481d305818c2dff7
305818c2dff748f9
481d305818c2dff7
305818c2dff748f9
481d305818c2dff7
aa392effc8df05df
48f9aa392effc8df
aa392effc8df05df
48f9aa392effc8df
aa392effc8df05df
48f9aa392effc8df
aa392effc8df05df
48f9aa392effc8df
46c9e63822fb1387
05df46c9e6388787
46c9e63822fb1387
05df46c9e6388787
46c9e63822fb1387
05df46c9e6388787
46c9e63822fb1387
05df46c9e6388787
24332a4acb01dead
878724332a4acb01
24332a4acb01dead
878724332a4acb01
24332a4acb01dead
878724332a4acb01
24332a4acb01dead
878724332a4acb01
574d4aca23687fee
dead574d4aca2368
574d4aca23687fee
dead574d4aca2368
574d4aca23687fee
dead574d4aca2368
574d4aca23687fee
dead574d4aca2368
21005ae992572d9f
7fee21005ae99257
21005ae992572d9f
7fee21005ae99257
21005ae992572d9f
7fee21005ae99257
21005ae992572d9f
7fee21005ae99257
fb85efbf2307c0aa
2d9ffb85efbf2307
fb85efbf2307c0aa
2d9ffb85efbf2307
fb85efbf2307c0aa
2d9ffb85efbf2307
fb85efbf2307c0aa
2d9ffb85efbf2307
460a53c38c1f481d
c0aa460a53c38c1f
460a53c38c1f481d
c0aa460a53c38c1f
460a53c38c1f481d
c0aa460a53c38c1f
460a53c38c1f481d
c0aa460a53c38c1f
305818c2dff748f9
481d305818c2dff7
305818c2dff748f9
481d305818c2dff7
305818c2dff748f9
481d305818c2dff7
305818c2dff748f9
481d305818c2dff7
aa392effc8df05df
48f9aa392effc8df
aa392effc8df05df
48f9aa392effc8df
aa392effc8df05df
48f9aa392effc8df
aa392effc8df05df
48f9aa392effc8df
46c9e63822fb1387
05df46c9e6388787
46c9e63822fb1387
05df46c9e6388787
46c9e63822fb1387
05df46c9e6388787
46c9e63822fb1387
05df46c9e6388787
24332a4acb01dead
878724332a4acb01
24332a4acb01dead
878724332a4acb01
24332a4acb01dead
878724332a4acb01
24332a4acb01dead
878724332a4acb01
574d4aca23687fee
dead574d4aca2368
574d4aca23687fee
dead574d4aca2368
574d4aca23687fee
dead574d4aca2368
574d4aca23687fee
dead574d4aca2368
21005ae992572d9f
7fee21005ae99257
21005ae992572d9f
7fee21005ae99257
21005ae992572d9f
7fee21005ae99257
21005ae992572d9f
7fee21005ae99257
fb85efbf2307c0aa
2d9ffb85efbf2307
fb85efbf2307c0aa
2d9ffb85efbf2307
fb85efbf2307c0aa
2d9ffb85efbf2307
fb85efbf2307c0aa
2d9ffb85efbf2307
460a53c38c1f481d
c0aa460a53c38c1f
460a53c38c1f481d
c0aa460a53c38c1f
460a53c38c1f481d
c0aa460a53c38c1f
460a53c38c1f481d
c0aa460a53c38c1f
305818c2dff748f9
481d305818c2dff7
305818c2dff748f9
481d305818c2dff7
305818c2dff748f9
481d305818c2dff7
305818c2dff748f9
481d305818c2dff7
aa392effc8df05df
48f9aa392effc8df
aa392effc8df05df
48f9aa392effc8df
aa392effc8df05df
48f9aa392effc8df
aa392effc8df05df
48f9aa392effc8df
46c9e63822fb1387
05df46c9e6388787
46c9e63822fb1387
05df46c9e6388787
46c9e63822fb1387
05df46c9e6388787
46c9e63822fb1387
05df46c9e6388787
24332a4acb01dead
878724332a4acb01
24332a4acb01dead
878724332a4acb01
24332a4acb01dead
878724332a4acb01
24332a4acb01dead
878724332a4acb01
574d4aca23687fee
dead574d4aca2368
574d4aca23687fee
dead574d4aca2368
574d4aca23687fee
dead574d4aca2368
574d4aca23687fee
dead574d4aca2368
21005ae992572d9f
7fee21005ae99257
21005ae992572d9f
7fee21005ae99257
21005ae992572d9f
7fee21005ae99257
21005ae992572d9f
7fee21005ae99257
fb85efbf2307c0aa
2d9ffb85efbf2307
fb85efbf2307c0aa
2d9ffb85efbf2307
fb85efbf2307c0aa
2d9ffb85efbf2307
fb85efbf2307c0aa
2d9ffb85efbf2307
460a53c38c1f481d
c0aa460a53c38c1f
460a53c38c1f481d
c0aa460a53c38c1f
460a53c38c1f481d
c0aa460a53c38c1f
460a53c38c1f481d
c0aa460a53c38c1f
305818c2dff748f9
481d305818c2dff7
305818c2dff748f9
481d305818c2dff7
305818c2dff748f9
481d305818c2dff7
305818c2dff748f9
481d305818c2dff7
aa392effc8df05df
48f9aa392effc8df
aa392effc8df05df
48f9aa392effc8df
aa392effc8df05df
48f9aa392effc8df
aa392effc8df05df
48f9aa392effc8df
46c9e63822fb1387
05df46c9e6388787
46c9e63822fb1387
05df46c9e6388787
46c9e63822fb1387
05df46c9e6388787
46c9e63822fb1387
05df46c9e6388787
24332a4acb01dead
878724332a4acb01
24332a4acb01dead
878724332a4acb01
24332a4acb01dead
878724332a4acb01
24332a4acb01dead
878724332a4acb01
574d4aca23687fee
dead574d4aca2368
574d4aca23687fee
dead574d4aca2368
574d4aca23687fee
dead574d4aca2368
574d4aca23687fee
dead574d4aca2368
21005ae992572d9f
7fee21005ae99257
21005ae992572d9f
7fee21005ae99257
21005ae992572d9f
7fee21005ae99257
21005ae992572d9f
7fee21005ae99257
fb85efbf2307c0aa
2d9ffb85efbf2307
fb85efbf2307c0aa
2d9ffb85efbf2307
fb85efbf2307c0aa
2d9ffb85efbf2307
fb85efbf2307c0aa
2d9ffb85efbf2307
460a53c38c1f481d
c0aa460a53c38c1f
460a53c38c1f481d
c0aa460a53c38c1f
460a53c38c1f481d
c0aa460a53c38c1f
460a53c38c1f481d
c0aa460a53c38c1f
305818c2dff748f9
481d305818c2dff7
305818c2dff748f9
481d305818c2dff7
305818c2dff748f9
481d305818c2dff7
305818c2dff748f9
481d305818c2dff7
aa392effc8df05df
48f9aa392effc8df
aa392effc8df05df
48f9aa392effc8df
aa392effc8df05df
48f9aa392effc8df
aa392effc8df05df
48f9aa392effc8df
46c9e63822fb1387
05df46c9e6388787
46c9e63822fb1387
05df46c9e6388787
46c9e63822fb1387
05df46c9e6388787
46c9e63822fb1387
05df46c9e6388787
24332a4acb01dead
878724332a4acb01
24332a4acb01dead
878724332a4acb01
24332a4acb01dead
878724332a4acb01
24332a4acb01dead
878724332a4acb01
574d4aca23687fee
dead574d4aca2368
574d4aca23687fee
dead574d4aca2368
574d4aca23687fee
dead574d4aca2368
574d4aca23687fee
dead574d4aca2368
21005ae992572d9f
7fee21005ae99257
21005ae992572d9f
7fee21005ae99257
21005ae992572d9f
7fee21005ae99257
21005ae992572d9f
7fee21005ae99257
fb85efbf2307c0aa
2d9ffb85efbf2307
fb85efbf2307c0aa
2d9ffb85efbf2307
fb85efbf2307c0aa
2d9ffb85efbf2307
fb85efbf2307c0aa
2d9ffb85efbf2307
460a53c38c1f481d
c0aa460a53c38c1f
460a53c38c1f481d
c0aa460a53c38c1f
460a53c38c1f481d
c0aa460a53c38c1f
460a53c38c1f481d
c0aa460a53c38c1f
305818c2dff748f9
481d305818c2dff7
305818c2dff748f9
481d305818c2dff7
305818c2dff748f9
481d305818c2dff7
305818c2dff748f9
481d305818c2dff7
aa392effc8df05df
48f9aa392effc8df
aa392effc8df05df
48f9aa392effc8df
aa392effc8df05df
48f9aa392effc8df
aa392effc8df05df
48f9aa392effc8df
46c9e63822fb1387
05df46c9e6388787
46c9e63822fb1387
05df46c9e6388787
46c9e63822fb1387
05df46c9e6388787
46c9e63822fb1387
05df46c9e6388787
f80ffeada62a01fd
9e9e9ef80ffeada6
f80ffeada62a01fd
9e9e9ef80ffeada6
f80ffeada62a01fd
9e9e9ef80ffeada6
f80ffeada62a01fd
9e9e9ef80ffeada6
521f24b5b10d560e
2a01fd521f24b5b1
521f24b5b10d560e
2a01fd521f24b5b1
521f24b5b10d560e
2a01fd521f24b5b1
521f24b5b10d560e
2a01fd521f24b5b1
4606302736d820e9
0d560e4606302736
4606302736d820e9
0d560e4606302736
4606302736d820e9
0d560e4606302736
4606302736d820e9
0d560e4606302736
07487f30335df88a
d820e907487f3033
07487f30335df88a
d820e907487f3033
07487f30335df88a
d820e907487f3033
07487f30335df88a
d820e907487f3033
310a2cfc1d2035ff
5df88a310a2cfc1d
310a2cfc1d2035ff
5df88a310a2cfc1d
310a2cfc1d2035ff
5df88a310a2cfc1d
310a2cfc1d2035ff
5df88a310a2cfc1d
e8ca1c413edb2166
2035ffe8ca1c413e
e8ca1c413edb2166
2035ffe8ca1c413e
e8ca1c413edb2166
2035ffe8ca1c413e
e8ca1c413edb2166
2035ffe8ca1c413e
e9662d4a7111a620
db2166e9662d4a71
e9662d4a7111a620
db2166e9662d4a71
e9662d4a7111a620
db2166e9662d4a71
e9662d4a7111a620
db2166e9662d4a71
b9f3ba4d8f29249e
11a620b9f3ba4d8f
b9f3ba4d8f29249e
11a620b9f3ba4d8f
b9f3ba4d8f29249e
11a620b9f3ba4d8f
b9f3ba4d8f29249e
11a620b9f3ba4d8f
f80ffeada62a01fd
9e9e9ef80ffeada6
f80ffeada62a01fd
9e9e9ef80ffeada6
f80ffeada62a01fd
9e9e9ef80ffeada6
f80ffeada62a01fd
9e9e9ef80ffeada6
521f24b5b10d560e
2a01fd521f24b5b1
521f24b5b10d560e
2a01fd521f24b5b1
521f24b5b10d560e
2a01fd521f24b5b1
521f24b5b10d560e
2a01fd521f24b5b1
4606302736d820e9
0d560e4606302736
4606302736d820e9
0d560e4606302736
4606302736d820e9
0d560e4606302736
4606302736d820e9
0d560e4606302736
07487f30335df88a
d820e907487f3033
07487f30335df88a
d820e907487f3033
07487f30335df88a
d820e907487f3033
07487f30335df88a
d820e907487f3033
310a2cfc1d2035ff
5df88a310a2cfc1d
310a2cfc1d2035ff
5df88a310a2cfc1d
310a2cfc1d2035ff
5df88a310a2cfc1d
310a2cfc1d2035ff
5df88a310a2cfc1d
e8ca1c413edb2166
2035ffe8ca1c413e
e8ca1c413edb2166
2035ffe8ca1c413e
e8ca1c413edb2166
2035ffe8ca1c413e
e8ca1c413edb2166
2035ffe8ca1c413e
e9662d4a7111a620
db2166e9662d4a71
e9662d4a7111a620
db2166e9662d4a71
e9662d4a7111a620
db2166e9662d4a71
e9662d4a7111a620
db2166e9662d4a71
b9f3ba4d8f29249e
11a620b9f3ba4d8f
b9f3ba4d8f29249e
11a620b9f3ba4d8f
b9f3ba4d8f29249e
11a620b9f3ba4d8f
b9f3ba4d8f29249e
11a620b9f3ba4d8f
f80ffeada62a01fd
9e9e9ef80ffeada6
f80ffeada62a01fd
9e9e9ef80ffeada6
f80ffeada62a01fd
9e9e9ef80ffeada6
f80ffeada62a01fd
9e9e9ef80ffeada6
521f24b5b10d560e
2a01fd521f24b5b1
521f24b5b10d560e
2a01fd521f24b5b1
521f24b5b10d560e
2a01fd521f24b5b1
521f24b5b10d560e
2a01fd521f24b5b1
4606302736d820e9
0d560e4606302736
4606302736d820e9
0d560e4606302736
4606302736d820e9
0d560e4606302736
4606302736d820e9
0d560e4606302736
07487f30335df88a
d820e907487f3033
07487f30335df88a
d820e907487f3033
07487f30335df88a
d820e907487f3033
07487f30335df88a
d820e907487f3033
310a2cfc1d2035ff
5df88a310a2cfc1d
310a2cfc1d2035ff
5df88a310a2cfc1d
310a2cfc1d2035ff
5df88a310a2cfc1d
310a2cfc1d2035ff
5df88a310a2cfc1d
e8ca1c413edb2166
2035ffe8ca1c413e
e8ca1c413edb2166
2035ffe8ca1c413e
e8ca1c413edb2166
2035ffe8ca1c413e
e8ca1c413edb2166
2035ffe8ca1c413e
e9662d4a7111a620
db2166e9662d4a71
e9662d4a7111a620
db2166e9662d4a71
e9662d4a7111a620
db2166e9662d4a71
e9662d4a7111a620
db2166e9662d4a71
b9f3ba4d8f29249e
11a620b9f3ba4d8f
b9f3ba4d8f29249e
11a620b9f3ba4d8f
b9f3ba4d8f29249e
11a620b9f3ba4d8f
b9f3ba4d8f29249e
11a620b9f3ba4d8f
f80ffeada62a01fd
9e9e9ef80ffeada6
f80ffeada62a01fd
9e9e9ef80ffeada6
f80ffeada62a01fd
9e9e9ef80ffeada6
f80ffeada62a01fd
9e9e9ef80ffeada6
521f24b5b10d560e
2a01fd521f24b5b1
521f24b5b10d560e
2a01fd521f24b5b1
521f24b5b10d560e
2a01fd521f24b5b1
521f24b5b10d560e
2a01fd521f24b5b1
4606302736d820e9
0d560e4606302736
4606302736d820e9
0d560e4606302736
4606302736d820e9
0d560e4606302736
4606302736d820e9
0d560e4606302736
07487f30335df88a
d820e907487f3033
07487f30335df88a
d820e907487f3033
07487f30335df88a
d820e907487f3033
07487f30335df88a
d820e907487f3033
310a2cfc1d2035ff
5df88a310a2cfc1d
310a2cfc1d2035ff
5df88a310a2cfc1d
310a2cfc1d2035ff
5df88a310a2cfc1d
310a2cfc1d2035ff
5df88a310a2cfc1d
e8ca1c413edb2166
2035ffe8ca1c413e
e8ca1c413edb2166
2035ffe8ca1c413e
e8ca1c413edb2166
2035ffe8ca1c413e
e8ca1c413edb2166
2035ffe8ca1c413e
e9662d4a7111a620
db2166e9662d4a71
e9662d4a7111a620
db2166e9662d4a71
e9662d4a7111a620
db2166e9662d4a71
e9662d4a7111a620
db2166e9662d4a71
b9f3ba4d8f29249e
11a620b9f3ba4d8f
b9f3ba4d8f29249e
11a620b9f3ba4d8f
b9f3ba4d8f29249e
11a620b9f3ba4d8f
b9f3ba4d8f29249e
11a620b9f3ba4d8f
f80ffeada62a01fd
9e9e9ef80ffeada6
f80ffeada62a01fd
9e9e9ef80ffeada6
f80ffeada62a01fd
9e9e9ef80ffeada6
f80ffeada62a01fd
9e9e9ef80ffeada6
521f24b5b10d560e
2a01fd521f24b5b1
521f24b5b10d560e
2a01fd521f24b5b1
521f24b5b10d560e
2a01fd521f24b5b1
521f24b5b10d560e
2a01fd521f24b5b1
4606302736d820e9
0d560e4606302736
4606302736d820e9
0d560e4606302736
4606302736d820e9
0d560e4606302736
4606302736d820e9
0d560e4606302736
07487f30335df88a
d820e907487f3033
07487f30335df88a
d820e907487f3033
07487f30335df88a
d820e907487f3033
07487f30335df88a
d820e907487f3033
310a2cfc1d2035ff
5df88a310a2cfc1d
310a2cfc1d2035ff
5df88a310a2cfc1d
310a2cfc1d2035ff
5df88a310a2cfc1d
310a2cfc1d2035ff
5df88a310a2cfc1d
e8ca1c413edb2166
2035ffe8ca1c413e
e8ca1c413edb2166
2035ffe8ca1c413e
e8ca1c413edb2166
2035ffe8ca1c413e
e8ca1c413edb2166
2035ffe8ca1c413e
e9662d4a7111a620
db2166e9662d4a71
e9662d4a7111a620
db2166e9662d4a71
e9662d4a7111a620
db2166e9662d4a71
e9662d4a7111a620
db2166e9662d4a71
b9f3ba4d8f29249e
11a620b9f3ba4d8f
b9f3ba4d8f29249e
11a620b9f3ba4d8f
b9f3ba4d8f29249e
11a620b9f3ba4d8f
b9f3ba4d8f29249e
11a620b9f3ba4d8f
f80ffeada62a01fd
9e9e9ef80ffeada6
f80ffeada62a01fd
9e9e9ef80ffeada6
f80ffeada62a01fd
9e9e9ef80ffeada6
f80ffeada62a01fd
9e9e9ef80ffeada6
521f24b5b10d560e
2a01fd521f24b5b1
521f24b5b10d560e
2a01fd521f24b5b1
521f24b5b10d560e
2a01fd521f24b5b1
521f24b5b10d560e
2a01fd521f24b5b1
4606302736d820e9
0d560e4606302736
4606302736d820e9
0d560e4606302736
4606302736d820e9
0d560e4606302736
4606302736d820e9
0d560e4606302736
07487f30335df88a
d820e907487f3033
07487f30335df88a
d820e907487f3033
07487f30335df88a
d820e907487f3033
07487f30335df88a
d820e907487f3033
310a2cfc1d2035ff
5df88a310a2cfc1d
310a2cfc1d2035ff
5df88a310a2cfc1d
310a2cfc1d2035ff
5df88a310a2cfc1d
310a2cfc1d2035ff
5df88a310a2cfc1d
e8ca1c413edb2166
2035ffe8ca1c413e
e8ca1c413edb2166
2035ffe8ca1c413e
e8ca1c413edb2166
2035ffe8ca1c413e
e8ca1c413edb2166
2035ffe8ca1c413e
e9662d4a7111a620
db2166e9662d4a71
e9662d4a7111a620
db2166e9662d4a71
e9662d4a7111a620
db2166e9662d4a71
e9662d4a7111a620
db2166e9662d4a71
b9f3ba4d8f29249e
11a620b9f3ba4d8f
b9f3ba4d8f29249e
11a620b9f3ba4d8f
b9f3ba4d8f29249e
11a620b9f3ba4d8f
b9f3ba4d8f29249e
11a620b9f3ba4d8f
f80ffeada62a01fd
9e9e9ef80ffeada6
f80ffeada62a01fd
9e9e9ef80ffeada6
f80ffeada62a01fd
9e9e9ef80ffeada6
f80ffeada62a01fd
9e9e9ef80ffeada6
521f24b5b10d560e
2a01fd521f24b5b1
521f24b5b10d560e
2a01fd521f24b5b1
521f24b5b10d560e
2a01fd521f24b5b1
521f24b5b10d560e
2a01fd521f24b5b1
4606302736d820e9
0d560e4606302736
4606302736d820e9
0d560e4606302736
4606302736d820e9
0d560e4606302736
4606302736d820e9
0d560e4606302736
07487f30335df88a
d820e907487f3033
07487f30335df88a
d820e907487f3033
07487f30335df88a
d820e907487f3033
07487f30335df88a
d820e907487f3033
310a2cfc1d2035ff
5df88a310a2cfc1d
310a2cfc1d2035ff
5df88a310a2cfc1d
310a2cfc1d2035ff
5df88a310a2cfc1d
310a2cfc1d2035ff
5df88a310a2cfc1d
e8ca1c413edb2166
2035ffe8ca1c413e
e8ca1c413edb2166
2035ffe8ca1c413e
e8ca1c413edb2166
2035ffe8ca1c413e
e8ca1c413edb2166
2035ffe8ca1c413e
e9662d4a7111a620
db2166e9662d4a71
e9662d4a7111a620
db2166e9662d4a71
e9662d4a7111a620
db2166e9662d4a71
e9662d4a7111a620
db2166e9662d4a71
b9f3ba4d8f29249e
11a620b9f3ba4d8f
b9f3ba4d8f29249e
11a620b9f3ba4d8f
b9f3ba4d8f29249e
11a620b9f3ba4d8f
b9f3ba4d8f29249e
11a620b9f3ba4d8f
f80ffeada62a01fd
9e9e9ef80ffeada6
f80ffeada62a01fd
9e9e9ef80ffeada6
f80ffeada62a01fd
9e9e9ef80ffeada6
f80ffeada62a01fd
9e9e9ef80ffeada6
521f24b5b10d560e
2a01fd521f24b5b1
521f24b5b10d560e
2a01fd521f24b5b1
521f24b5b10d560e
2a01fd521f24b5b1
521f24b5b10d560e
2a01fd521f24b5b1
4606302736d820e9
0d560e4606302736
4606302736d820e9
0d560e4606302736
4606302736d820e9
0d560e4606302736
4606302736d820e9
0d560e4606302736
07487f30335df88a
d820e907487f3033
07487f30335df88a
d820e907487f3033
07487f30335df88a
d820e907487f3033
07487f30335df88a
d820e907487f3033
310a2cfc1d2035ff
5df88a310a2cfc1d
310a2cfc1d2035ff
5df88a310a2cfc1d
310a2cfc1d2035ff
5df88a310a2cfc1d
310a2cfc1d2035ff
5df88a310a2cfc1d
e8ca1c413edb2166
2035ffe8ca1c413e
e8ca1c413edb2166
2035ffe8ca1c413e
e8ca1c413edb2166
2035ffe8ca1c413e
e8ca1c413edb2166
2035ffe8ca1c413e
e9662d4a7111a620
db2166e9662d4a71
e9662d4a7111a620
db2166e9662d4a71
e9662d4a7111a620
db2166e9662d4a71
e9662d4a7111a620
db2166e9662d4a71
b9f3ba4d8f29249e
11a620b9f3ba4d8f
b9f3ba4d8f29249e
11a620b9f3ba4d8f
b9f3ba4d8f29249e
11a620b9f3ba4d8f
b9f3ba4d8f29249e
11a620b9f3ba4d8f
71f4dc1bd60919e9
71f4dc1bd60919e9
71f4dc1bd60919e9
71f4dc1bd60919e9
71f4dc1bd60919e9
71f4dc1bd60919e9
71f4dc1bd60919e9
71f4dc1bd60919e9
c457e23a4621510a
c457e23a4621510a
c457e23a4621510a
c457e23a4621510a
c457e23a4621510a
c457e23a4621510a
c457e23a4621510a
c457e23a4621510a
e1d41ffbe92dae50
e1d41ffbe92dae50
e1d41ffbe92dae50
e1d41ffbe92dae50
e1d41ffbe92dae50
e1d41ffbe92dae50
e1d41ffbe92dae50
e1d41ffbe92dae50
37310fa0c4e4dea3
37310fa0c4e4dea3
37310fa0c4e4dea3
37310fa0c4e4dea3
37310fa0c4e4dea3
37310fa0c4e4dea3
37310fa0c4e4dea3
37310fa0c4e4dea3
e69b2ae310ead039
e69b2ae310ead039
e69b2ae310ead039
e69b2ae310ead039
e69b2ae310ead039
e69b2ae310ead039
e69b2ae310ead039
e69b2ae310ead039
0f43d93627954bea
0f43d93627954bea
0f43d93627954bea
0f43d93627954bea
0f43d93627954bea
0f43d93627954bea
0f43d93627954bea
0f43d93627954bea
f704d325f6f105f2
f704d325f6f105f2
f704d325f6f105f2
f704d325f6f105f2
f704d325f6f105f2
f704d325f6f105f2
f704d325f6f105f2
f704d325f6f105f2
c63b1fe3ea27081e
c63b1fe3ea27081e
c63b1fe3ea27081e
c63b1fe3ea27081e
c63b1fe3ea27081e
c63b1fe3ea27081e
c63b1fe3ea27081e
c63b1fe3ea27081e
392b2d343a45d614
392b2d343a45d614
392b2d343a45d614
392b2d343a45d614
392b2d343a45d614
392b2d343a45d614
392b2d343a45d614
392b2d343a45d614
d009dfb20e13f7b8
d009dfb20e13f7b8
d009dfb20e13f7b8
d009dfb20e13f7b8
d009dfb20e13f7b8
d009dfb20e13f7b8
d009dfb20e13f7b8
d009dfb20e13f7b8
38e93559124e2830
38e93559124e2830
38e93559124e2830
38e93559124e2830
38e93559124e2830
38e93559124e2830
38e93559124e2830
38e93559124e2830
a2030aeb1ca2d8fa
a2030aeb1ca2d8fa
a2030aeb1ca2d8fa
a2030aeb1ca2d8fa
a2030aeb1ca2d8fa
a2030aeb1ca2d8fa
a2030aeb1ca2d8fa
a2030aeb1ca2d8fa
adebbaac8f84ccf1
adebbaac8f84ccf1
adebbaac8f84ccf1
adebbaac8f84ccf1
adebbaac8f84ccf1
adebbaac8f84ccf1
adebbaac8f84ccf1
adebbaac8f84ccf1
5f2918f2f82c49df
5f2918f2f82c49df
5f2918f2f82c49df
5f2918f2f82c49df
5f2918f2f82c49df
5f2918f2f82c49df
5f2918f2f82c49df
5f2918f2f82c49df
8c3146c00d2449e1
8c3146c00d2449e1
8c3146c00d2449e1
8c3146c00d2449e1
8c3146c00d2449e1
8c3146c00d2449e1
8c3146c00d2449e1
8c3146c00d2449e1
f45ae6f2ef01f8e5
f45ae6f2ef01f8e5
f45ae6f2ef01f8e5
f45ae6f2ef01f8e5
f45ae6f2ef01f8e5
f45ae6f2ef01f8e5
f45ae6f2ef01f8e5
f45ae6f2ef01f8e5
195f31e4f3dce005
195f31e4f3dce005
195f31e4f3dce005
195f31e4f3dce005
195f31e4f3dce005
195f31e4f3dce005
195f31e4f3dce005
195f31e4f3dce005
d00809321915e187
d00809321915e187
d00809321915e187
d00809321915e187
d00809321915e187
d00809321915e187
d00809321915e187
d00809321915e187
c608c86ed4081fda
c608c86ed4081fda
c608c86ed4081fda
c608c86ed4081fda
c608c86ed4081fda
c608c86ed4081fda
c608c86ed4081fda
c608c86ed4081fda
f5ffe5f534c90f60
f5ffe5f534c90f60
f5ffe5f534c90f60
f5ffe5f534c90f60
f5ffe5f534c90f60
f5ffe5f534c90f60
f5ffe5f534c90f60
f5ffe5f534c90f60
40ff53d9e2090616
40ff53d9e2090616
40ff53d9e2090616
40ff53d9e2090616
40ff53d9e2090616
40ff53d9e2090616
40ff53d9e2090616
40ff53d9e2090616
14a03135ba05189b
14a03135ba05189b
14a03135ba05189b
14a03135ba05189b
14a03135ba05189b
14a03135ba05189b
14a03135ba05189b
14a03135ba05189b
ef2c643936b5bc02
ef2c643936b5bc02
ef2c643936b5bc02
ef2c643936b5bc02
ef2c643936b5bc02
ef2c643936b5bc02
ef2c643936b5bc02
ef2c643936b5bc02
e71809feb9e324c0
e71809feb9e324c0
e71809feb9e324c0
e71809feb9e324c0
e71809feb9e324c0
e71809feb9e324c0
e71809feb9e324c0
e71809feb9e324c0
19299374ce343ab7
19299374ce343ab7
19299374ce343ab7
19299374ce343ab7
19299374ce343ab7
19299374ce343ab7
19299374ce343ab7
19299374ce343ab7
6ddffc42f8f2bffb
6ddffc42f8f2bffb
6ddffc42f8f2bffb
6ddffc42f8f2bffb
6ddffc42f8f2bffb
6ddffc42f8f2bffb
6ddffc42f8f2bffb
6ddffc42f8f2bffb
e401191c5bfb29dd
e401191c5bfb29dd
e401191c5bfb29dd
e401191c5bfb29dd
e401191c5bfb29dd
e401191c5bfb29dd
e401191c5bfb29dd
e401191c5bfb29dd
29d354234597cf64
29d354234597cf64
29d354234597cf64
29d354234597cf64
29d354234597cf64
29d354234597cf64
29d354234597cf64
29d354234597cf64
e62fff32d0124114
e62fff32d0124114
e62fff32d0124114
e62fff32d0124114
e62fff32d0124114
e62fff32d0124114
e62fff32d0124114
e62fff32d0124114
d76dee170cbd7b20
d76dee170cbd7b20
d76dee170cbd7b20
d76dee170cbd7b20
d76dee170cbd7b20
d76dee170cbd7b20
d76dee170cbd7b20
d76dee170cbd7b20
cf08fe0407b5350c
cf08fe0407b5350c
cf08fe0407b5350c
cf08fe0407b5350c
cf08fe0407b5350c
cf08fe0407b5350c
cf08fe0407b5350c
cf08fe0407b5350c
f213f216841db603
f213f216841db603
f213f216841db603
f213f216841db603
f213f216841db603
f213f216841db603
f213f216841db603
f213f216841db603
2bb0dcda92e79558
2bb0dcda92e79558
2bb0dcda92e79558
2bb0dcda92e79558
2bb0dcda92e79558
2bb0dcda92e79558
2bb0dcda92e79558
2bb0dcda92e79558
1bf53f0df7f919e6
1bf53f0df7f919e6
1bf53f0df7f919e6
1bf53f0df7f919e6
1bf53f0df7f919e6
1bf53f0df7f919e6
1bf53f0df7f919e6
1bf53f0df7f919e6
9401dd7e23287f07
9401dd7e23287f07
9401dd7e23287f07
9401dd7e23287f07
9401dd7e23287f07
9401dd7e23287f07
9401dd7e23287f07
9401dd7e23287f07
0e4f2cee79d7d508
0e4f2cee79d7d508
0e4f2cee79d7d508
0e4f2cee79d7d508
0e4f2cee79d7d508
0e4f2cee79d7d508
0e4f2cee79d7d508
0e4f2cee79d7d508
6b8402c62ae4fb24
6b8402c62ae4fb24
6b8402c62ae4fb24
6b8402c62ae4fb24
6b8402c62ae4fb24
6b8402c62ae4fb24
6b8402c62ae4fb24
6b8402c62ae4fb24
aa343fbd162ebcc0
aa343fbd162ebcc0
aa343fbd162ebcc0
aa343fbd162ebcc0
aa343fbd162ebcc0
aa343fbd162ebcc0
aa343fbd162ebcc0
aa343fbd162ebcc0
613fbadfe2c2b6ad
613fbadfe2c2b6ad
613fbadfe2c2b6ad
613fbadfe2c2b6ad
613fbadfe2c2b6ad
613fbadfe2c2b6ad
613fbadfe2c2b6ad
613fbadfe2c2b6ad
0d21321dda6cff40
0d21321dda6cff40
0d21321dda6cff40
0d21321dda6cff40
0d21321dda6cff40
0d21321dda6cff40
0d21321dda6cff40
0d21321dda6cff40
231ce8f22dc9bb83
231ce8f22dc9bb83
231ce8f22dc9bb83
231ce8f22dc9bb83
231ce8f22dc9bb83
231ce8f22dc9bb83
231ce8f22dc9bb83
231ce8f22dc9bb83
0a0b5143e1edfd44
0a0b5143e1edfd44
0a0b5143e1edfd44
0a0b5143e1edfd44
0a0b5143e1edfd44
0a0b5143e1edfd44
0a0b5143e1edfd44
0a0b5143e1edfd44
c7c61eece14a0dd6
c7c61eece14a0dd6
c7c61eece14a0dd6
c7c61eece14a0dd6
c7c61eece14a0dd6
c7c61eece14a0dd6
c7c61eece14a0dd6
c7c61eece14a0dd6
23850aa4513df48a
23850aa4513df48a
23850aa4513df48a
23850aa4513df48a
23850aa4513df48a
23850aa4513df48a
23850aa4513df48a
23850aa4513df48a
0d9639d1d1ccd5af
0d9639d1d1ccd5af
0d9639d1d1ccd5af
0d9639d1d1ccd5af
0d9639d1d1ccd5af
0d9639d1d1ccd5af
0d9639d1d1ccd5af
0d9639d1d1ccd5af
d9170613c1d7b59a
d9170613c1d7b59a
d9170613c1d7b59a
d9170613c1d7b59a
d9170613c1d7b59a
d9170613c1d7b59a
d9170613c1d7b59a
d9170613c1d7b59a
05c0b0421b0425f7
05c0b0421b0425f7
05c0b0421b0425f7
05c0b0421b0425f7
05c0b0421b0425f7
05c0b0421b0425f7
05c0b0421b0425f7
05c0b0421b0425f7
7ace5ffcd144d219
7ace5ffcd144d219
7ace5ffcd144d219
7ace5ffcd144d219
7ace5ffcd144d219
7ace5ffcd144d219
7ace5ffcd144d219
7ace5ffcd144d219
e6dd34f71cfd7c01
e6dd34f71cfd7c01
e6dd34f71cfd7c01
e6dd34f71cfd7c01
e6dd34f71cfd7c01
e6dd34f71cfd7c01
e6dd34f71cfd7c01
e6dd34f71cfd7c01
b8e6eacd2bf91130
b8e6eacd2bf91130
b8e6eacd2bf91130
b8e6eacd2bf91130
b8e6eacd2bf91130
b8e6eacd2bf91130
b8e6eacd2bf91130
b8e6eacd2bf91130
c1d21598e442c590
c1d21598e442c590
c1d21598e442c590
c1d21598e442c590
c1d21598e442c590
c1d21598e442c590
c1d21598e442c590
c1d21598e442c590
cee0ff221ef61601
cee0ff221ef61601
cee0ff221ef61601
cee0ff221ef61601
cee0ff221ef61601
cee0ff221ef61601
cee0ff221ef61601
cee0ff221ef61601
f0f73ae5d8d3212c
f0f73ae5d8d3212c
f0f73ae5d8d3212c
f0f73ae5d8d3212c
f0f73ae5d8d3212c
f0f73ae5d8d3212c
f0f73ae5d8d3212c
f0f73ae5d8d3212c
959657e6e6e5b832
959657e6e6e5b832
959657e6e6e5b832
959657e6e6e5b832
959657e6e6e5b832
959657e6e6e5b832
959657e6e6e5b832
959657e6e6e5b832
29404f1c5b00e8f7
29404f1c5b00e8f7
29404f1c5b00e8f7
29404f1c5b00e8f7
29404f1c5b00e8f7
29404f1c5b00e8f7
29404f1c5b00e8f7
29404f1c5b00e8f7
12372f3158d92dfa
12372f3158d92dfa
12372f3158d92dfa
12372f3158d92dfa
12372f3158d92dfa
12372f3158d92dfa
12372f3158d92dfa
12372f3158d92dfa
115003e7b5d4eb9b
115003e7b5d4eb9b
115003e7b5d4eb9b
115003e7b5d4eb9b
115003e7b5d4eb9b
115003e7b5d4eb9b
115003e7b5d4eb9b
115003e7b5d4eb9b
112b3e1fc7eee3d8
112b3e1fc7eee3d8
112b3e1fc7eee3d8
112b3e1fc7eee3d8
112b3e1fc7eee3d8
112b3e1fc7eee3d8
112b3e1fc7eee3d8
112b3e1fc7eee3d8
0108600908122de8
0108600908122de8
0108600908122de8
0108600908122de8
0108600908122de8
0108600908122de8
0108600908122de8
0108600908122de8
0c2ee6e641decc20
0c2ee6e641decc20
0c2ee6e641decc20
0c2ee6e641decc20
0c2ee6e641decc20
0c2ee6e641decc20
0c2ee6e641decc20
0c2ee6e641decc20
ea26c6d19a0b19fa
ea26c6d19a0b19fa
ea26c6d19a0b19fa
ea26c6d19a0b19fa
ea26c6d19a0b19fa
ea26c6d19a0b19fa
ea26c6d19a0b19fa
ea26c6d19a0b19fa
f55560134300e67e
f55560134300e67e
f55560134300e67e
f55560134300e67e
f55560134300e67e
f55560134300e67e
f55560134300e67e
f55560134300e67e
d5c3d332838a219f
d5c3d332838a219f
d5c3d332838a219f
d5c3d332838a219f
d5c3d332838a219f
d5c3d332838a219f
d5c3d332838a219f
d5c3d332838a219f
f73f2f03fac10dd3
f73f2f03fac10dd3
f73f2f03fac10dd3
f73f2f03fac10dd3
f73f2f03fac10dd3
f73f2f03fac10dd3
f73f2f03fac10dd3
f73f2f03fac10dd3
fe03cdde14ff413b
fe03cdde14ff413b
fe03cdde14ff413b
fe03cdde14ff413b
fe03cdde14ff413b
fe03cdde14ff413b
fe03cdde14ff413b
fe03cdde14ff413b
7b75f1f635f0323b
7b75f1f635f0323b
7b75f1f635f0323b
7b75f1f635f0323b
7b75f1f635f0323b
7b75f1f635f0323b
7b75f1f635f0323b
7b75f1f635f0323b
11d062ff1ac73dcc
11d062ff1ac73dcc
11d062ff1ac73dcc
11d062ff1ac73dcc
11d062ff1ac73dcc
11d062ff1ac73dcc
11d062ff1ac73dcc
11d062ff1ac73dcc
c4796c29f2b4130d
c4796c29f2b4130d
c4796c29f2b4130d
c4796c29f2b4130d
c4796c29f2b4130d
c4796c29f2b4130d
c4796c29f2b4130d
c4796c29f2b4130d
ec74cd4f7330b2eb
ec74cd4f7330b2eb
ec74cd4f7330b2eb
ec74cd4f7330b2eb
ec74cd4f7330b2eb
ec74cd4f7330b2eb
ec74cd4f7330b2eb
ec74cd4f7330b2eb
31eeb10ec52c0747
31eeb10ec52c0747
31eeb10ec52c0747
31eeb10ec52c0747
31eeb10ec52c0747
31eeb10ec52c0747
31eeb10ec52c0747
31eeb10ec52c0747
2ac1d02ae0a4c46d
2ac1d02ae0a4c46d
2ac1d02ae0a4c46d
2ac1d02ae0a4c46d
2ac1d02ae0a4c46d
2ac1d02ae0a4c46d
2ac1d02ae0a4c46d
2ac1d02ae0a4c46d
2013fee9f227e4c3
2013fee9f227e4c3
2013fee9f227e4c3
2013fee9f227e4c3
2013fee9f227e4c3
2013fee9f227e4c3
2013fee9f227e4c3
2013fee9f227e4c3
33dbe64f126062c9
4f126062c938399c
33dbe64f126062c9
4f126062c938399c
33dbe64f126062c9
4f126062c938399c
33dbe64f126062c9
4f126062c938399c
38399cbd14cb9915
bd14cb9915c6f5db
38399cbd14cb9915
bd14cb9915c6f5db
38399cbd14cb9915
bd14cb9915c6f5db
38399cbd14cb9915
bd14cb9915c6f5db
c6f5dbc4031a050c
c4031a050c2fe1f6
c6f5dbc4031a050c
c4031a050c2fe1f6
c6f5dbc4031a050c
c4031a050c2fe1f6
c6f5dbc4031a050c
c4031a050c2fe1f6
2fe1f607f8d1e5cb
07f8d1e5cb17150c
2fe1f607f8d1e5cb
07f8d1e5cb17150c
2fe1f607f8d1e5cb
07f8d1e5cb17150c
2fe1f607f8d1e5cb
07f8d1e5cb17150c
17150ccde92e1311
cde92e13113906dd
17150ccde92e1311
cde92e13113906dd
17150ccde92e1311
cde92e13113906dd
17150ccde92e1311
cde92e13113906dd
3906ddc001360b21
c001360b212a5981
3906ddc001360b21
c001360b212a5981
3906ddc001360b21
c001360b212a5981
3906ddc001360b21
c001360b212a5981
2a5981e723b15c2f
e723b15c2f19a7e2
2a5981e723b15c2f
e723b15c2f19a7e2
2a5981e723b15c2f
e723b15c2f19a7e2
2a5981e723b15c2f
e723b15c2f19a7e2
19a7e2ab0c33dbe6
ab0cc9ea70707070
19a7e2ab0c33dbe6
ab0cc9ea70707070
19a7e2ab0c33dbe6
ab0cc9ea70707070
19a7e2ab0c33dbe6
ab0cc9ea70707070
33dbe64f126062c9
4f126062c938399c
33dbe64f126062c9
4f126062c938399c
33dbe64f126062c9
4f126062c938399c
33dbe64f126062c9
4f126062c938399c
38399cbd14cb9915
bd14cb9915c6f5db
38399cbd14cb9915
bd14cb9915c6f5db
38399cbd14cb9915
bd14cb9915c6f5db
38399cbd14cb9915
bd14cb9915c6f5db
c6f5dbc4031a050c
c4031a050c2fe1f6
c6f5dbc4031a050c
c4031a050c2fe1f6
c6f5dbc4031a050c
c4031a050c2fe1f6
c6f5dbc4031a050c
c4031a050c2fe1f6
2fe1f607f8d1e5cb
07f8d1e5cb17150c
2fe1f607f8d1e5cb
07f8d1e5cb17150c
2fe1f607f8d1e5cb
07f8d1e5cb17150c
2fe1f607f8d1e5cb
07f8d1e5cb17150c
17150ccde92e1311
cde92e13113906dd
17150ccde92e1311
cde92e13113906dd
17150ccde92e1311
cde92e13113906dd
17150ccde92e1311
cde92e13113906dd
3906ddc001360b21
c001360b212a5981
3906ddc001360b21
c001360b212a5981
3906ddc001360b21
c001360b212a5981
3906ddc001360b21
c001360b212a5981
2a5981e723b15c2f
e723b15c2f19a7e2
2a5981e723b15c2f
e723b15c2f19a7e2
2a5981e723b15c2f
e723b15c2f19a7e2
2a5981e723b15c2f
e723b15c2f19a7e2
19a7e2ab0c33dbe6
ab0cc9ea70707070
19a7e2ab0c33dbe6
ab0cc9ea70707070
19a7e2ab0c33dbe6
ab0cc9ea70707070
19a7e2ab0c33dbe6
ab0cc9ea70707070
33dbe64f126062c9
4f126062c938399c
33dbe64f126062c9
4f126062c938399c
33dbe64f126062c9
4f126062c938399c
33dbe64f126062c9
4f126062c938399c
38399cbd14cb9915
bd14cb9915c6f5db
38399cbd14cb9915
bd14cb9915c6f5db
38399cbd14cb9915
bd14cb9915c6f5db
38399cbd14cb9915
bd14cb9915c6f5db
c6f5dbc4031a050c
c4031a050c2fe1f6
c6f5dbc4031a050c
c4031a050c2fe1f6
c6f5dbc4031a050c
c4031a050c2fe1f6
c6f5dbc4031a050c
c4031a050c2fe1f6
2fe1f607f8d1e5cb
07f8d1e5cb17150c
2fe1f607f8d1e5cb
07f8d1e5cb17150c
2fe1f607f8d1e5cb
07f8d1e5cb17150c
2fe1f607f8d1e5cb
07f8d1e5cb17150c
17150ccde92e1311
cde92e13113906dd
17150ccde92e1311
cde92e13113906dd
17150ccde92e1311
cde92e13113906dd
17150ccde92e1311
cde92e13113906dd
3906ddc001360b21
c001360b212a5981
3906ddc001360b21
c001360b212a5981
3906ddc001360b21
c001360b212a5981
3906ddc001360b21
c001360b212a5981
2a5981e723b15c2f
e723b15c2f19a7e2
2a5981e723b15c2f
e723b15c2f19a7e2
2a5981e723b15c2f
e723b15c2f19a7e2
2a5981e723b15c2f
e723b15c2f19a7e2
19a7e2ab0c33dbe6
ab0cc9ea70707070
19a7e2ab0c33dbe6
ab0cc9ea70707070
19a7e2ab0c33dbe6
ab0cc9ea70707070
19a7e2ab0c33dbe6
ab0cc9ea70707070
33dbe64f126062c9
4f126062c938399c
33dbe64f126062c9
4f126062c938399c
33dbe64f126062c9
4f126062c938399c
33dbe64f126062c9
4f126062c938399c
38399cbd14cb9915
bd14cb9915c6f5db
38399cbd14cb9915
bd14cb9915c6f5db
38399cbd14cb9915
bd14cb9915c6f5db
38399cbd14cb9915
bd14cb9915c6f5db
c6f5dbc4031a050c
c4031a050c2fe1f6
c6f5dbc4031a050c
c4031a050c2fe1f6
c6f5dbc4031a050c
c4031a050c2fe1f6
c6f5dbc4031a050c
c4031a050c2fe1f6
2fe1f607f8d1e5cb
07f8d1e5cb17150c
2fe1f607f8d1e5cb
07f8d1e5cb17150c
2fe1f607f8d1e5cb
07f8d1e5cb17150c
2fe1f607f8d1e5cb
07f8d1e5cb17150c
17150ccde92e1311
cde92e13113906dd
17150ccde92e1311
cde92e13113906dd
17150ccde92e1311
cde92e13113906dd
17150ccde92e1311
cde92e13113906dd
3906ddc001360b21
c001360b212a5981
3906ddc001360b21
c001360b212a5981
3906ddc001360b21
c001360b212a5981
3906ddc001360b21
c001360b212a5981
2a5981e723b15c2f
e723b15c2f19a7e2
2a5981e723b15c2f
e723b15c2f19a7e2
2a5981e723b15c2f
e723b15c2f19a7e2
2a5981e723b15c2f
e723b15c2f19a7e2
19a7e2ab0c33dbe6
ab0cc9ea70707070
19a7e2ab0c33dbe6
ab0cc9ea70707070
19a7e2ab0c33dbe6
ab0cc9ea70707070
19a7e2ab0c33dbe6
ab0cc9ea70707070
33dbe64f126062c9
4f126062c938399c
33dbe64f126062c9
4f126062c938399c
33dbe64f126062c9
4f126062c938399c
33dbe64f126062c9
4f126062c938399c
38399cbd14cb9915
bd14cb9915c6f5db
38399cbd14cb9915
bd14cb9915c6f5db
38399cbd14cb9915
bd14cb9915c6f5db
38399cbd14cb9915
bd14cb9915c6f5db
c6f5dbc4031a050c
c4031a050c2fe1f6
